{
  "version": "1.0",
  "truncation": null,
  "padding": null,
  "added_tokens": [
    {
      "id": 0,
      "content": "<unk>",
      "single_word": false,
      "lstrip": false,
      "rstrip": false,
      "normalized": false,
      "special": true
    },
    {
      "id": 1,
      "content": "<s>",
      "single_word": false,
      "lstrip": false,
      "rstrip": false,
      "normalized": false,
      "special": true
    },
    {
      "id": 2,
      "content": "</s>",
      "single_word": false,
      "lstrip": false,
      "rstrip": false,
      "normalized": false,
      "special": true
    },
    {
      "id": 3,
      "content": "<|im_start|>",
      "single_word": false,
      "lstrip": false,
      "rstrip": false,
      "normalized": false,
      "special": true
    },
    {
      "id": 4,
      "content": "<|im_end|>",
      "single_word": false,
      "lstrip": false,
      "rstrip": false,
      "normalized": false,
      "special": true
    }
  ],
  "normalizer": {
    "type": "NFKC"
  },
  "pre_tokenizer": {
    "type": "ByteLevel",
    "add_prefix_space": false,
    "trim_offsets": true,
    "use_regex": true
  },
  "post_processor": null,
  "decoder": {
    "type": "ByteLevel",
    "add_prefix_space": true,
    "trim_offsets": true,
    "use_regex": true
  },
  "model": {
    "type": "BPE",
    "dropout": null,
    "unk_token": "<unk>",
    "continuing_subword_prefix": null,
    "end_of_word_suffix": null,
    "fuse_unk": false,
    "byte_fallback": false,
    "ignore_merges": false,
    "vocab": {
      "<unk>": 0,
      "<s>": 1,
      "</s>": 2,
      "<|im_start|>": 3,
      "<|im_end|>": 4,
      "!": 5,
      "\"": 6,
      "#": 7,
      "$": 8,
      "%": 9,
      "&": 10,
      "'": 11,
      "(": 12,
      ")": 13,
      "*": 14,
      "+": 15,
      ",": 16,
      "-": 17,
      ".": 18,
      "/": 19,
      "0": 20,
      "1": 21,
      "2": 22,
      "3": 23,
      "4": 24,
      "5": 25,
      "6": 26,
      "7": 27,
      "8": 28,
      "9": 29,
      ":": 30,
      ";": 31,
      "<": 32,
      "=": 33,
      ">": 34,
      "?": 35,
      "@": 36,
      "A": 37,
      "B": 38,
      "C": 39,
      "D": 40,
      "E": 41,
      "F": 42,
      "G": 43,
      "H": 44,
      "I": 45,
      "J": 46,
      "K": 47,
      "L": 48,
      "M": 49,
      "N": 50,
      "O": 51,
      "P": 52,
      "Q": 53,
      "R": 54,
      "S": 55,
      "T": 56,
      "U": 57,
      "V": 58,
      "W": 59,
      "X": 60,
      "Y": 61,
      "Z": 62,
      "[": 63,
      "\\": 64,
      "]": 65,
      "^": 66,
      "_": 67,
      "`": 68,
      "a": 69,
      "b": 70,
      "c": 71,
      "d": 72,
      "e": 73,
      "f": 74,
      "g": 75,
      "h": 76,
      "i": 77,
      "j": 78,
      "k": 79,
      "l": 80,
      "m": 81,
      "n": 82,
      "o": 83,
      "p": 84,
      "q": 85,
      "r": 86,
      "s": 87,
      "t": 88,
      "u": 89,
      "v": 90,
      "w": 91,
      "x": 92,
      "y": 93,
      "z": 94,
      "{": 95,
      "|": 96,
      "}": 97,
      "~": 98,
      "¡": 99,
      "¢": 100,
      "£": 101,
      "¤": 102,
      "¥": 103,
      "¦": 104,
      "§": 105,
      "¨": 106,
      "©": 107,
      "ª": 108,
      "«": 109,
      "¬": 110,
      "®": 111,
      "¯": 112,
      "°": 113,
      "±": 114,
      "²": 115,
      "³": 116,
      "´": 117,
      "µ": 118,
      "¶": 119,
      "·": 120,
      "¸": 121,
      "¹": 122,
      "º": 123,
      "»": 124,
      "¼": 125,
      "½": 126,
      "¾": 127,
      "¿": 128,
      "À": 129,
      "Á": 130,
      "Â": 131,
      "Ã": 132,
      "Ä": 133,
      "Å": 134,
      "Æ": 135,
      "Ç": 136,
      "È": 137,
      "É": 138,
      "Ê": 139,
      "Ë": 140,
      "Ì": 141,
      "Í": 142,
      "Î": 143,
      "Ï": 144,
      "Ð": 145,
      "Ñ": 146,
      "Ò": 147,
      "Ó": 148,
      "Ô": 149,
      "Õ": 150,
      "Ö": 151,
      "×": 152,
      "Ø": 153,
      "Ù": 154,
      "Ú": 155,
      "Û": 156,
      "Ü": 157,
      "Ý": 158,
      "Þ": 159,
      "ß": 160,
      "à": 161,
      "á": 162,
      "â": 163,
      "ã": 164,
      "ä": 165,
      "å": 166,
      "æ": 167,
      "ç": 168,
      "è": 169,
      "é": 170,
      "ê": 171,
      "ë": 172,
      "ì": 173,
      "í": 174,
      "î": 175,
      "ï": 176,
      "ð": 177,
      "ñ": 178,
      "ò": 179,
      "ó": 180,
      "ô": 181,
      "õ": 182,
      "ö": 183,
      "÷": 184,
      "ø": 185,
      "ù": 186,
      "ú": 187,
      "û": 188,
      "ü": 189,
      "ý": 190,
      "þ": 191,
      "ÿ": 192,
      "Ā": 193,
      "ā": 194,
      "Ă": 195,
      "ă": 196,
      "Ą": 197,
      "ą": 198,
      "Ć": 199,
      "ć": 200,
      "Ĉ": 201,
      "ĉ": 202,
      "Ċ": 203,
      "ċ": 204,
      "Č": 205,
      "č": 206,
      "Ď": 207,
      "ď": 208,
      "Đ": 209,
      "đ": 210,
      "Ē": 211,
      "ē": 212,
      "Ĕ": 213,
      "ĕ": 214,
      "Ė": 215,
      "ė": 216,
      "Ę": 217,
      "ę": 218,
      "Ě": 219,
      "ě": 220,
      "Ĝ": 221,
      "ĝ": 222,
      "Ğ": 223,
      "ğ": 224,
      "Ġ": 225,
      "ġ": 226,
      "Ģ": 227,
      "ģ": 228,
      "Ĥ": 229,
      "ĥ": 230,
      "Ħ": 231,
      "ħ": 232,
      "Ĩ": 233,
      "ĩ": 234,
      "Ī": 235,
      "ī": 236,
      "Ĭ": 237,
      "ĭ": 238,
      "Į": 239,
      "į": 240,
      "İ": 241,
      "ı": 242,
      "Ĳ": 243,
      "ĳ": 244,
      "Ĵ": 245,
      "ĵ": 246,
      "Ķ": 247,
      "ķ": 248,
      "ĸ": 249,
      "Ĺ": 250,
      "ĺ": 251,
      "Ļ": 252,
      "ļ": 253,
      "Ľ": 254,
      "ľ": 255,
      "Ŀ": 256,
      "ŀ": 257,
      "Ł": 258,
      "ł": 259,
      "Ń": 260,
      "ä¸": 261,
      "ãĢ": 262,
      "çļ": 263,
      "çļĦ": 264,
      "äº": 265,
      "ãĢĤ": 266,
      "æľ": 267,
      "åı": 268,
      "åħ": 269,
      "ä»": 270,
      "å¤": 271,
      "ãĢģ": 272,
      "å®": 273,
      "åĪ": 274,
      "ä½": 275,
      "è¿": 276,
      "çĶ": 277,
      "åľ": 278,
      "åĲ": 279,
      "åĬ": 280,
      "æĺ": 281,
      "ç»": 282,
      "åĽ": 283,
      "æĸ": 284,
      "æĪ": 285,
      "ä¹": 286,
      "ä¼": 287,
      "ä¸Ģ": 288,
      "å¹": 289,
      "å°": 290,
      "æĺ¯": 291,
      "è®": 292,
      "æĹ": 293,
      "åŃ": 294,
      "åį": 295,
      "âĢ": 296,
      "æľī": 297,
      "å·": 298,
      "åľ¨": 299,
      "è¯": 300,
      "æĿ": 301,
      "éĩ": 302,
      "äºº": 303,
      "åĮ": 304,
      "å¸": 305,
      "ä¸į": 306,
      "ä¸Ń": 307,
      "åº": 308,
      "å¼": 309,
      "æī": 310,
      "éĢ": 311,
      "è¡": 312,
      "åĴ": 313,
      "å¾": 314,
      "èĢ": 315,
      "åĨ": 316,
      "å¯": 317,
      "åĴĮ": 318,
      "äºĨ": 319,
      "åĩ": 320,
      "å±": 321,
      "æĢ": 322,
      "ĥ½": 323,
      "æķ": 324,
      "å¤§": 325,
      "æ°": 326,
      "ä¸º": 327,
      "æĬ": 328,
      "çĽ": 329,
      "è´": 330,
      "ç§": 331,
      "æł": 332,
      "è§": 333,
      "åĽ½": 334,
      "çī": 335,
      "èµ": 336,
      "å¥": 337,
      "çİ": 338,
      "ä¸ļ": 339,
      "çĶŁ": 340,
      "è¦": 341,
      "ä»¥": 342,
      "æĶ": 343,
      "å¿": 344,
      "è¦ģ": 345,
      "éĻ": 346,
      "éĿ": 347,
      "å¹´": 348,
      "åıĳ": 349,
      "åİ": 350,
      "æŃ": 351,
      "ä¼ļ": 352,
      "èĩ": 353,
      "å½": 354,
      "çĲ": 355,
      "çŃ": 356,
      "çĶ¨": 357,
      "æ³": 358,
      "åŃ¦": 359,
      "æ²": 360,
      "ä¿": 361,
      "èĥ½": 362,
      "ä¸Ĭ": 363,
      "ä½ľ": 364,
      "åĳ": 365,
      "æİ": 366,
      "éĹ": 367,
      "å·¥": 368,
      "çº": 369,
      "æµ": 370,
      "ä¸ª": 371,
      "æŀ": 372,
      "æĹ¶": 373,
      "æĪĲ": 374,
      "âĢľ": 375,
      "âĢĿ": 376,
      "è¡Į": 377,
      "è¿Ļ": 378,
      "åĵ": 379,
      "åı¯": 380,
      "é¢": 381,
      "æĪĳ": 382,
      "åĪ°": 383,
      "å¯¹": 384,
      "åĩº": 385,
      "æ¯": 386,
      "æĥ": 387,
      "è¾": 388,
      "æĮ": 389,
      "é«": 390,
      "çĲĨ": 391,
      "åŁ": 392,
      "éĺ": 393,
      "çľ": 394,
      "å®¶": 395,
      "äºİ": 396,
      "åī": 397,
      "é«ĺ": 398,
      "äº§": 399,
      "æĿ¥": 400,
      "å¤ļ": 401,
      "æ±": 402,
      "çŃī": 403,
      "èĤ": 404,
      "åľ°": 405,
      "æĦ": 406,
      "åĮĸ": 407,
      "æĭ": 408,
      "åĪĨ": 409,
      "æĸ¹": 410,
      "æĸ°": 411,
      "è½": 412,
      "éģ": 413,
      "åĬĽ": 414,
      "åħ¨": 415,
      "æĢ§": 416,
      "è¿Ľ": 417,
      "èĩª": 418,
      "ä½ĵ": 419,
      "æ´": 420,
      "æ¸": 421,
      "ä¾": 422,
      "ç«": 423,
      "ä»¬": 424,
      "åĬ¨": 425,
      "ç»ı": 426,
      "è¿ĩ": 427,
      "åħ¬": 428,
      "å»": 429,
      "ç®": 430,
      "ä¹Ł": 431,
      "å¦": 432,
      "å®ŀ": 433,
      "ç¨": 434,
      "çİ°": 435,
      "å°±": 436,
      "éķ": 437,
      "éĥ": 438,
      "åĲĪ": 439,
      "åĲİ": 440,
      "æ¬": 441,
      "å±ķ": 442,
      "éĿ¢": 443,
      "ä¸ĭ": 444,
      "ä¸»": 445,
      "æı": 446,
      "åģ": 447,
      "èī": 448,
      "çĤ": 449,
      "æĽ": 450,
      "é£": 451,
      "ä»ĸ": 452,
      "éĩį": 453,
      "çĻ": 454,
      "åĵģ": 455,
      "ç½": 456,
      "å¥½": 457,
      "é¡": 458,
      "ä¸İ": 459,
      "æľº": 460,
      "åĲĮ": 461,
      "éĥ¨": 462,
      "å¿ĥ": 463,
      "å®ļ": 464,
      "åĬł": 465,
      "æ°´": 466,
      "å¸Ĥ": 467,
      "å»º": 468,
      "è®¾": 469,
      "æ³ķ": 470,
      "åº¦": 471,
      "å¼Ģ": 472,
      "éĽ": 473,
      "èĢĮ": 474,
      "ä¹ĭ": 475,
      "ç¤": 476,
      "å¢": 477,
      "æľ¬": 478,
      "èģ": 479,
      "æĻ": 480,
      "åŃĲ": 481,
      "åħ¶": 482,
      "çĹ": 483,
      "åĢ": 484,
      "èĢħ": 485,
      "è¶": 486,
      "å¾Ĺ": 487,
      "çĸ": 488,
      "åĪ¶": 489,
      "éĩı": 490,
      "éķ¿": 491,
      "20": 492,
      "æĹ¥": 493,
      "çī©": 494,
      "è·": 495,
      "æıĲ": 496,
      "ç¾": 497,
      "ç¬": 498,
      "å¦Ĥ": 499,
      "è°": 500,
      "æīĢ": 501,
      "åĿ": 502,
      "çŁ": 503,
      "åıĬ": 504,
      "åĬ¡": 505,
      "æ¶": 506,
      "éļ": 507,
      "äºĭ": 508,
      "åħ³": 509,
      "åīį": 510,
      "éĢļ": 511,
      "å°ı": 512,
      "ä¿Ŀ": 513,
      "éĥ½": 514,
      "æį": 515,
      "åľº": 516,
      "åºĶ": 517,
      "çł": 518,
      "æľĪ": 519,
      "ç§į": 520,
      "çĶµ": 521,
      "åĨħ": 522,
      "ç®¡": 523,
      "æĥħ": 524,
      "çĿ": 525,
      "ç³": 526,
      "å§": 527,
      "åĽł": 528,
      "èµĦ": 529,
      "çķ": 530,
      "èĲ": 531,
      "ç²": 532,
      "æĸĩ": 533,
      "ç©": 534,
      "èĬ": 535,
      "çĥ": 536,
      "åĮº": 537,
      "ç´": 538,
      "çĦ": 539,
      "æľĢ": 540,
      "ç¨ĭ": 541,
      "å¤ĸ": 542,
      "éħ": 543,
      "æ°ĳ": 544,
      "æĽ´": 545,
      "æķĻ": 546,
      "æŁ": 547,
      "æĬĢ": 548,
      "å¤©": 549,
      "æľ¯": 550,
      "çĽ®": 551,
      "éľ": 552,
      "å¹³": 553,
      "ç§ĳ": 554,
      "ä¸ŃåĽ½": 555,
      "åıĳå±ķ": 556,
      "å°Ĩ": 557,
      "è´¨": 558,
      "ä½į": 559,
      "åħ¥": 560,
      "æľŁ": 561,
      "éĹ´": 562,
      "æĦı": 563,
      "çĽ¸": 564,
      "åĳĺ": 565,
      "Ĥ£": 566,
      "èĥ": 567,
      "æ¯Ķ": 568,
      "è¡¨": 569,
      "å¸¸": 570,
      "ç±": 571,
      "ç¡": 572,
      "çĤ¹": 573,
      "å·¥ä½ľ": 574,
      "çī¹": 575,
      "ä¼ģ": 576,
      "å¾Ī": 577,
      "ä»£": 578,
      "éĶ": 579,
      "ä½¿": 580,
      "æĶ¿": 581,
      "æ·": 582,
      "è¿ĺ": 583,
      "å®ī": 584,
      "ç¬¬": 585,
      "ä¸ī": 586,
      "å¼º": 587,
      "ç³»": 588,
      "è¯´": 589,
      "éģĵ": 590,
      "èµ·": 591,
      "åı¸": 592,
      "å½ĵ": 593,
      "éĩĳ": 594,
      "æŀľ": 595,
      "æ´»": 596,
      "åı¯ä»¥": 597,
      "æ¬¡": 598,
      "æ²»": 599,
      "ãĢĭ": 600,
      "ãĢĬ": 601,
      "æŃ¤": 602,
      "æģ": 603,
      "èĪ": 604,
      "èį": 605,
      "å¹¶": 606,
      "ä»İ": 607,
      "ç¥": 608,
      "ä¼ģä¸ļ": 609,
      "ä½Ĩ": 610,
      "ä¸ĵ": 611,
      "æĺİ": 612,
      "çĿĢ": 613,
      "çĦ¶": 614,
      "éĴ": 615,
      "æĪĳä»¬": 616,
      "ä¿¡": 617,
      "åĲį": 618,
      "åĲĦ": 619,
      "ç¾İ": 620,
      "åĪ©": 621,
      "æķ°": 622,
      "åħ¬åı¸": 623,
      "æľį": 624,
      "æĮģ": 625,
      "è®¡": 626,
      "äºĽ": 627,
      "å¼ı": 628,
      "åŁº": 629,
      "éĵ": 630,
      "çĹħ": 631,
      "æĪĸ": 632,
      "é£İ": 633,
      "ä¸Ģä¸ª": 634,
      "éĻ¢": 635,
      "çģ": 636,
      "è§£": 637,
      "æĹł": 638,
      "ä½ł": 639,
      "è¢": 640,
      "æŃ£": 641,
      "çĪ": 642,
      "åķ": 643,
      "é¦": 644,
      "ç¼": 645,
      "è§Ħ": 646,
      "èĭ": 647,
      "éľĢ": 648,
      "åŀ": 649,
      "æ¡": 650,
      "è£": 651,
      "èī²": 652,
      "é¡¹": 653,
      "éĢł": 654,
      "äºĮ": 655,
      "ç»ĵ": 656,
      "åĮ»": 657,
      "åħļ": 658,
      "æº": 659,
      "ç¤¾": 660,
      "èĤ²": 661,
      "ç¦": 662,
      "00": 663,
      "ç»Ł": 664,
      "å¤Ħ": 665,
      "åĸ": 666,
      "èº": 667,
      "å¯¼": 668,
      "é¢ĺ": 669,
      "ä»»": 670,
      "æ°Ķ": 671,
      "çľĭ": 672,
      "åįģ": 673,
      "éĩĮ": 674,
      "å£": 675,
      "åĪĽ": 676,
      "æ±Ĥ": 677,
      "çłĶ": 678,
      "èĦ": 679,
      "åģļ": 680,
      "åħ·": 681,
      "æµģ": 682,
      "åħĥ": 683,
      "è¿Ĳ": 684,
      "æĦŁ": 685,
      "æĥ³": 686,
      "æīĭ": 687,
      "ç«ĭ": 688,
      "çĶ±": 689,
      "åİ»": 690,
      "è¢«": 691,
      "ç»Ħ": 692,
      "èº«": 693,
      "å¢ŀ": 694,
      "æį®": 695,
      "æķĪ": 696,
      "æłĩ": 697,
      "æİ¥": 698,
      "ä¹Ī": 699,
      "æ»": 700,
      "ç½ĳ": 701,
      "ä¼ł": 702,
      "è½¦": 703,
      "ç²¾": 704,
      "å·²": 705,
      "æ²¡": 706,
      "åİŁ": 707,
      "æĢ»": 708,
      "æł·": 709,
      "èĮ": 710,
      "æĸĻ": 711,
      "åķĨ": 712,
      "äº¤": 713,
      "éª": 714,
      "éĹ®": 715,
      "å·±": 716,
      "ä»¶": 717,
      "åĲĳ": 718,
      "éĹ¨": 719,
      "åıĹ": 720,
      "å½¢": 721,
      "å½±": 722,
      "æł¡": 723,
      "é¢Ĩ": 724,
      "æĬĢæľ¯": 725,
      "è¥": 726,
      "çĻ½": 727,
      "è¥¿": 728,
      "å¤ĩ": 729,
      "æł¼": 730,
      "è·¯": 731,
      "çĲĥ": 732,
      "èĩªå·±": 733,
      "çİ¯": 734,
      "æµ·": 735,
      "åŀĭ": 736,
      "çľģ": 737,
      "åħ±": 738,
      "ç®¡çĲĨ": 739,
      "çº§": 740,
      "é»": 741,
      "ä¸¤": 742,
      "éĽĨ": 743,
      "æĶ¹": 744,
      "æ£": 745,
      "åıĺ": 746,
      "ç±»": 747,
      "èģĶ": 748,
      "é©": 749,
      "éĤ£": 750,
      "æİ¨": 751,
      "çŁ¥": 752,
      "ä¼ĺ": 753,
      "å°ĳ": 754,
      "æľįåĬ¡": 755,
      "éĺŁ": 756,
      "ä¸ĩ": 757,
      "éĺ²": 758,
      "æ·±": 759,
      "æĶ¶": 760,
      "è¿Ľè¡Į": 761,
      "å±±": 762,
      "åĽ½å®¶": 763,
      "åįķ": 764,
      "èİ": 765,
      "è°ĥ": 766,
      "èĢģ": 767,
      "èĩ³": 768,
      "åħĪ": 769,
      "åı£": 770,
      "æĬ¥": 771,
      "å¹¿": 772,
      "é£Ł": 773,
      "åĻ": 774,
      "æĶ¾": 775,
      "è¾ĥ": 776,
      "äº§åĵģ": 777,
      "åıª": 778,
      "æĸ½": 779,
      "æ®": 780,
      "èĻ": 781,
      "çĸĹ": 782,
      "æ¢": 783,
      "ä¸ľ": 784,
      "åıĸ": 785,
      "ç¤º": 786,
      "è®°": 787,
      "æŀĦ": 788,
      "ä¾Ľ": 789,
      "å¸Ī": 790,
      "è¾¾": 791,
      "ç¤¾ä¼ļ": 792,
      "çĥŃ": 793,
      "ä¹¦": 794,
      "åŁİ": 795,
      "èĲ¥": 796,
      "å®Į": 797,
      "ä¸ĸ": 798,
      "æĮĩ": 799,
      "èµĽ": 800,
      "æ³¨": 801,
      "æºĲ": 802,
      "è®©": 803,
      "åįĹ": 804,
      "æ¨": 805,
      "è®¤": 806,
      "åĮĹ": 807,
      "çº¿": 808,
      "èĢĥ": 809,
      "éĢī": 810,
      "åĻ¨": 811,
      "å»ºè®¾": 812,
      "äºĶ": 813,
      "ä¹ł": 814,
      "è¿ĳ": 815,
      "å®¹": 816,
      "æīį": 817,
      "æ¼": 818,
      "åĽ¢": 819,
      "æīĵ": 820,
      "èĬĤ": 821,
      "è£ħ": 822,
      "ç´ł": 823,
      "éĿŀ": 824,
      "çĬ": 825,
      "æĿ¡": 826,
      "å¸¦": 827,
      "åħī": 828,
      "åĪ«": 829,
      "çķĮ": 830,
      "æĪĺ": 831,
      "ç¥ŀ": 832,
      "ä»·": 833,
      "åĨ³": 834,
      "å¢ĥ": 835,
      "å¥³": 836,
      "æĺĵ": 837,
      "ç¡®": 838,
      "è±": 839,
      "åĽĽ": 840,
      "æ¸ħ": 841,
      "å§Ķ": 842,
      "åĬŁ": 843,
      "æķ´": 844,
      "åĩĨ": 845,
      "å±Ģ": 846,
      "åı°": 847,
      "æ¯ı": 848,
      "éĹ®é¢ĺ": 849,
      "æ²¡æľī": 850,
      "ä½İ": 851,
      "åĶ": 852,
      "è¯ģ": 853,
      "æµİ": 854,
      "åĽŀ": 855,
      "æĢĿ": 856,
      "ä¹ī": 857,
      "æĬ¤": 858,
      "çĽ´": 859,
      "åĭ": 860,
      "å²": 861,
      "èħ": 862,
      "201": 863,
      "æĶ¯": 864,
      "æŃ¥": 865,
      "çľŁ": 866,
      "è§Ĩ": 867,
      "è§Ĥ": 868,
      "ç»Ļ": 869,
      "ç©¶": 870,
      "åħ»": 871,
      "éľĢè¦ģ": 872,
      "å®ĥ": 873,
      "éĻħ": 874,
      "çħ": 875,
      "ç©º": 876,
      "æĬĬ": 877,
      "ä½¿çĶ¨": 878,
      "æĪ·": 879,
      "æĬķ": 880,
      "ç»´": 881,
      "å¼ķ": 882,
      "æ¶Ī": 883,
      "åĮħ": 884,
      "çĶŁäº§": 885,
      "åĬŀ": 886,
      "æĿĲ": 887,
      "åĬ©": 888,
      "ç»ıæµİ": 889,
      "é¥": 890,
      "æģ¯": 891,
      "å¤´": 892,
      "èį¯": 893,
      "å®¢": 894,
      "æķĻèĤ²": 895,
      "åĨį": 896,
      "ç§¯": 897,
      "éĢļè¿ĩ": 898,
      "è¨": 899,
      "å¸Ĥåľº": 900,
      "è¯¥": 901,
      "å¿«": 902,
      "å¸ĥ": 903,
      "è´¹": 904,
      "çİĩ": 905,
      "èģĮ": 906,
      "è®®": 907,
      "å°±æĺ¯": 908,
      "èı": 909,
      "ä»Ĭ": 910,
      "åıĤ": 911,
      "è½¬": 912,
      "æł¹": 913,
      "éĩįè¦ģ": 914,
      "å¤į": 915,
      "åįĩ": 916,
      "Ġ,": 917,
      "æĤ£": 918,
      "èĩ´": 919,
      "æĤ": 920,
      "èīº": 921,
      "ä¸ĵä¸ļ": 922,
      "æĢģ": 923,
      "è®º": 924,
      "éªĮ": 925,
      "éĢŁ": 926,
      "çĶŁæ´»": 927,
      "åĳ½": 928,
      "çĪ±": 929,
      "åįİ": 930,
      "çłĶç©¶": 931,
      "åĦ": 932,
      "èĬ±": 933,
      "è§ģ": 934,
      "è¶Ĭ": 935,
      "æŁ¥": 936,
      "åĿļ": 937,
      "è¯Ĩ": 938,
      "åĵį": 939,
      "æĿĥ": 940,
      "æĸŃ": 941,
      "åİĨ": 942,
      "ç»Ń": 943,
      "é¡¹çĽ®": 944,
      "æĸ¯": 945,
      "çı": 946,
      "æĹ¶éĹ´": 947,
      "æŀģ": 948,
      "å¦Ĥæŀľ": 949,
      "ä¸»è¦ģ": 950,
      "åıį": 951,
      "æİ§": 952,
      "éĻĲ": 953,
      "æ¸¸": 954,
      "10": 955,
      "å¿ħ": 956,
      "è¯Ŀ": 957,
      "åģ¥": 958,
      "èĳ": 959,
      "åĨµ": 960,
      "éŁ": 961,
      "åŃĹ": 962,
      "æ¸©": 963,
      "è¶ħ": 964,
      "ç¢": 965,
      "æ£Ģ": 966,
      "è´£": 967,
      "è¶³": 968,
      "æ¹": 969,
      "ä»ĸä»¬": 970,
      "å¹²": 971,
      "æ¨¡": 972,
      "æħ": 973,
      "å¾·": 974,
      "çĭ": 975,
      "ä¸Ķ": 976,
      "é¦ĸ": 977,
      "å¡": 978,
      "å·ŀ": 979,
      "å®īåħ¨": 980,
      "åĨĽ": 981,
      "éĩĩ": 982,
      "åħĭ": 983,
      "ä½ķ": 984,
      "èĮĥ": 985,
      "èİ·": 986,
      "çļĦäºº": 987,
      "æĸĩåĮĸ": 988,
      "æĸ¹éĿ¢": 989,
      "åİĭ": 990,
      "ä»Ģ": 991,
      "éĢĤ": 992,
      "çª": 993,
      "è¯ķ": 994,
      "å·¥ç¨ĭ": 995,
      "æ±Ł": 996,
      "åŁŁ": 997,
      "åĪĻ": 998,
      "å§ĭ": 999,
      "éļ¾": 1000,
      "æİĴ": 1001,
      "âĢĶ": 1002,
      "ç§°": 1003,
      "åı²": 1004,
      "ç»ĩ": 1005,
      "èŀ": 1006,
      "åıĪ": 1007,
      "çļ®": 1008,
      "åº·": 1009,
      "åĢ¼": 1010,
      "æĪ¿": 1011,
      "éĻ¤": 1012,
      "éħį": 1013,
      "æ²»çĸĹ": 1014,
      "æ¡Ī": 1015,
      "æĺ¾": 1016,
      "åĦ¿": 1017,
      "ä¹Ĳ": 1018,
      "æµĭ": 1019,
      "æľª": 1020,
      "ä¼Ĺ": 1021,
      "çīĩ": 1022,
      "åĳĬ": 1023,
      "çĬ¶": 1024,
      "åĬ¿": 1025,
      "19": 1026,
      "å¥¹": 1027,
      "âĢĿ,": 1028,
      "åı¯èĥ½": 1029,
      "åĢĻ": 1030,
      "çģ«": 1031,
      "æıĲä¾Ľ": 1032,
      "æ²¹": 1033,
      "åĳ¨": 1034,
      "å½±åĵį": 1035,
      "ä»Ģä¹Ī": 1036,
      "äººæ°ĳ": 1037,
      "ç±³": 1038,
      "ä¸¥": 1039,
      "åĨľ": 1040,
      "åħ·æľī": 1041,
      "åĪĴ": 1042,
      "ä¸ĸçķĮ": 1043,
      "æľĽ": 1044,
      "é©¬": 1045,
      "åŃĺ": 1046,
      "åŁ¹": 1047,
      "è®¾è®¡": 1048,
      "è¿Ļä¸ª": 1049,
      "äº¬": 1050,
      "ä¾¿": 1051,
      "èĲ½": 1052,
      "è´¨éĩı": 1053,
      "è¡Įä¸ļ": 1054,
      "è¦ģæ±Ĥ": 1055,
      "åĪĩ": 1056,
      "ç«Ļ": 1057,
      "ç³»ç»Ł": 1058,
      "åĲĮæĹ¶": 1059,
      "ç»Ĩ": 1060,
      "è¡Ģ": 1061,
      "æĥħåĨµ": 1062,
      "å¥½çļĦ": 1063,
      "çİ¯å¢ĥ": 1064,
      "åĽłä¸º": 1065,
      "å±Ĥ": 1066,
      "éĿĴ": 1067,
      "æĿ¿": 1068,
      "åľŁ": 1069,
      "æļ": 1070,
      "åįı": 1071,
      "å¼ł": 1072,
      "è®¾å¤ĩ": 1073,
      "å£«": 1074,
      "çĮ": 1075,
      "æĴ": 1076,
      "ç¦»": 1077,
      "èµ°": 1078,
      "åĩł": 1079,
      "è±¡": 1080,
      "å±ŀ": 1081,
      "äº§ä¸ļ": 1082,
      "åŃ©": 1083,
      "åį³": 1084,
      "èĥ½åĬĽ": 1085,
      "å°Ķ": 1086,
      "å¯Į": 1087,
      "çº¦": 1088,
      "éļı": 1089,
      "æīĢä»¥": 1090,
      "æ»¡": 1091,
      "åĥ": 1092,
      "çİĭ": 1093,
      "ãĢĤâĢĿ": 1094,
      "çº¢": 1095,
      "ä»¥åıĬ": 1096,
      "çŁ³": 1097,
      "éĻį": 1098,
      "ç»Ħç»ĩ": 1099,
      "ä»ħ": 1100,
      "åħħ": 1101,
      "ä¸ŃçļĦ": 1102,
      "æĤ£èĢħ": 1103,
      "æ®µ": 1104,
      "èŀį": 1105,
      "é¾": 1106,
      "ä¾ĭ": 1107,
      "å®¤": 1108,
      "å¤ª": 1109,
      "æĻ¯": 1110,
      "æ¼Ķ": 1111,
      "å¾Ģ": 1112,
      "åĪĽæĸ°": 1113,
      "æĺ¯ä¸Ģ": 1114,
      "éĶĢ": 1115,
      "åŃ¦çĶŁ": 1116,
      "æŀĹ": 1117,
      "é¢Ħ": 1118,
      "èī¯": 1119,
      "éĤ": 1120,
      "æıĲé«ĺ": 1121,
      "å¨": 1122,
      "æ²³": 1123,
      "æ´»åĬ¨": 1124,
      "æĳ": 1125,
      "å¤±": 1126,
      "çħ§": 1127,
      "çīĮ": 1128,
      "çĻ¾": 1129,
      "æĿİ": 1130,
      "ä½ľä¸º": 1131,
      "ç½®": 1132,
      "çĽĬ": 1133,
      "åĸĦ": 1134,
      "äº¿": 1135,
      "å¤§çļĦ": 1136,
      "åĪĹ": 1137,
      "åĽ¾": 1138,
      "äººçļĦ": 1139,
      "æī¿": 1140,
      "éĿ©": 1141,
      "æł¸": 1142,
      "æ¥": 1143,
      "ä¸Ńå¿ĥ": 1144,
      "æ¿": 1145,
      "åºľ": 1146,
      "çĽĳ": 1147,
      "æĵ": 1148,
      "åĽŃ": 1149,
      "è®¸": 1150,
      "ä¿¡æģ¯": 1151,
      "åŃ¦ä¹ł": 1152,
      "çŃĸ": 1153,
      "æĿĳ": 1154,
      "äººåĳĺ": 1155,
      "åĽ½éĻħ": 1156,
      "å¾Īå¤ļ": 1157,
      "ä¸įåĲĮ": 1158,
      "ä¸ĢäºĽ": 1159,
      "åĩı": 1160,
      "ä½ľçĶ¨": 1161,
      "è´Ł": 1162,
      "æĪĲä¸º": 1163,
      "è¯Ħ": 1164,
      "ä¾Ŀ": 1165,
      "äºļ": 1166,
      "æĲ": 1167,
      "äºī": 1168,
      "ç²¾ç¥ŀ": 1169,
      "æĹ©": 1170,
      "è¨Ģ": 1171,
      "å¤ĦçĲĨ": 1172,
      "åħį": 1173,
      "å¤Ł": 1174,
      "å¿Ĺ": 1175,
      "åıĭ": 1176,
      "åĽ´": 1177,
      "ä½ı": 1178,
      "åł": 1179,
      "ç®Ĺ": 1180,
      "åĲ«": 1181,
      "éĻ©": 1182,
      "è¿Ļæł·": 1183,
      "éĺ³": 1184,
      "æĻº": 1185,
      "å¿µ": 1186,
      "æĭī": 1187,
      "è¿ŀ": 1188,
      "ä¿®": 1189,
      "èĤ¡": 1190,
      "ä¹Łæĺ¯": 1191,
      "åĲĥ": 1192,
      "å¯Ĩ": 1193,
      "éħĴ": 1194,
      "åı·": 1195,
      "åŃ¦æł¡": 1196,
      "ç»Ī": 1197,
      "åŁİå¸Ĥ": 1198,
      "è¿ĻäºĽ": 1199,
      "åĲĪä½ľ": 1200,
      "åı¤": 1201,
      "éĿŀå¸¸": 1202,
      "æĭ©": 1203,
      "ç¾¤": 1204,
      "é»Ħ": 1205,
      "å·²ç»ı": 1206,
      "è¯·": 1207,
      "æĶ¿åºľ": 1208,
      "ç¬¬ä¸Ģ": 1209,
      "è§Ĵ": 1210,
      "å¯¹äºİ": 1211,
      "çĨ": 1212,
      "åıĮ": 1213,
      "è¿ľ": 1214,
      "æĮī": 1215,
      "åħ´": 1216,
      "çļĦä¸Ģ": 1217,
      "äºĴ": 1218,
      "å¾ĭ": 1219,
      "åŃ©åŃĲ": 1220,
      "å¤§åŃ¦": 1221,
      "èĪ¬": 1222,
      "åģ¥åº·": 1223,
      "åĩºçİ°": 1224,
      "åĿĩ": 1225,
      "ä¸Ģå®ļ": 1226,
      "å¾®": 1227,
      "æ¬¾": 1228,
      "åĥı": 1229,
      "æľ¨": 1230,
      "åĲ¸": 1231,
      "å®ŀçİ°": 1232,
      "æ¿Ģ": 1233,
      "âĢĿãĢĤ": 1234,
      "æĻ®": 1235,
      "è¿ĩç¨ĭ": 1236,
      "è®²": 1237,
      "æĹ¶åĢĻ": 1238,
      "éĴ¢": 1239,
      "éĢīæĭ©": 1240,
      "æĹı": 1241,
      "ç§ĳæĬĢ": 1242,
      "ä»½": 1243,
      "èª": 1244,
      "ç¦ı": 1245,
      "è§ī": 1246,
      "ä¸įæĺ¯": 1247,
      "çĽ¸åħ³": 1248,
      "æķħ": 1249,
      "è´¢": 1250,
      "éħ¸": 1251,
      "èŃ": 1252,
      "åĪĿ": 1253,
      "èĩªå·±çļĦ": 1254,
      "åħ¶ä»ĸ": 1255,
      "çĹĩ": 1256,
      "å®³": 1257,
      "ç§ĳåŃ¦": 1258,
      "åħ¨åĽ½": 1259,
      "æĬķèµĦ": 1260,
      "æĿĲæĸĻ": 1261,
      "å¤§å®¶": 1262,
      "ä½Ĩæĺ¯": 1263,
      "æł¹æį®": 1264,
      "è½»": 1265,
      "åĽłæŃ¤": 1266,
      "åİ¿": 1267,
      "éĵ¶": 1268,
      "èĭ±": 1269,
      "çĶ»": 1270,
      "åŁºç¡": 1271,
      "12": 1272,
      "åŁºç¡Ģ": 1273,
      "çĽ®åīį": 1274,
      "åĤ": 1275,
      "åĳ³": 1276,
      "æī¹": 1277,
      "ä¸¾": 1278,
      "è®Ń": 1279,
      "åıĳçĶŁ": 1280,
      "ä»ĭ": 1281,
      "åħ«": 1282,
      "è¯Ń": 1283,
      "å±ħ": 1284,
      "éĥ¨åĪĨ": 1285,
      "ĠãĢĤ": 1286,
      "å¸Į": 1287,
      "åī¯": 1288,
      "æĸ¹æ³ķ": 1289,
      "åŃ£": 1290,
      "çľ¼": 1291,
      "æŁĵ": 1292,
      "é¡»": 1293,
      "åĶ®": 1294,
      "ä¸įæĸŃ": 1295,
      "äº²": 1296,
      "åĪ°äºĨ": 1297,
      "è¡¨ç¤º": 1298,
      "éĽĨåĽ¢": 1299,
      "å®Ŀ": 1300,
      "çļĦæĺ¯": 1301,
      "æĸ¹å¼ı": 1302,
      "çĵ": 1303,
      "åħ¶ä¸Ń": 1304,
      "æŃ¢": 1305,
      "çĸ«": 1306,
      "åİĤ": 1307,
      "ä¸įèĥ½": 1308,
      "åį«": 1309,
      "éĵģ": 1310,
      "ä¸ĢèĪ¬": 1311,
      "èĴ": 1312,
      "å°½": 1313,
      "çŃĳ": 1314,
      "ä»¥ä¸Ĭ": 1315,
      "çĶ·": 1316,
      "åīĤ": 1317,
      "æĬĹ": 1318,
      "å®ĺ": 1319,
      "æ¤": 1320,
      "ç¨³": 1321,
      "åİĨåı²": 1322,
      "æľīéĻĲ": 1323,
      "åºķ": 1324,
      "åįĬ": 1325,
      "ä¸»ä¹ī": 1326,
      "æłĩåĩĨ": 1327,
      "æĭ¬": 1328,
      "å¼Ģå§ĭ": 1329,
      "é¦Ļ": 1330,
      "åħ¨éĿ¢": 1331,
      "é²": 1332,
      "è¾¹": 1333,
      "éĥ½æĺ¯": 1334,
      "å¥ĸ": 1335,
      "11": 1336,
      "éŁ³": 1337,
      "åĬŁèĥ½": 1338,
      "åĮ»éĻ¢": 1339,
      "å©": 1340,
      "çıŃ": 1341,
      "èĥ½å¤Ł": 1342,
      "èĨ": 1343,
      "éļľ": 1344,
      "ç¼º": 1345,
      "ç®Ģ": 1346,
      "å®¡": 1347,
      "åºĶçĶ¨": 1348,
      "çł´": 1349,
      "åįķä½į": 1350,
      "åĸľ": 1351,
      "çªģ": 1352,
      "200": 1353,
      "ç£": 1354,
      "è¿Ļç§į": 1355,
      "å®£": 1356,
      "çºª": 1357,
      "èµĦæºĲ": 1358,
      "åį°": 1359,
      "åĮĹäº¬": 1360,
      "èİ·å¾Ĺ": 1361,
      "å£°": 1362,
      "15": 1363,
      "åĮħæĭ¬": 1364,
      "çĩ": 1365,
      "æ±½": 1366,
      "æŀĲ": 1367,
      "æķ°æį®": 1368,
      "éĥ¨éĹ¨": 1369,
      "ä¿ĥ": 1370,
      "çķĻ": 1371,
      "çİ°åľ¨": 1372,
      "çķ¥": 1373,
      "æĪĸèĢħ": 1374,
      "çĻ½çĻ": 1375,
      "ç¨İ": 1376,
      "è¾ĵ": 1377,
      "æľºæŀĦ": 1378,
      "åį´": 1379,
      "æ±¡": 1380,
      "ľé£İ": 1381,
      "åįļ": 1382,
      "åī§": 1383,
      "çĶ±äºİ": 1384,
      "è¡¥": 1385,
      "æĽ¾": 1386,
      "æ¸¯": 1387,
      "é¾Ļ": 1388,
      "çĻ½çĻľé£İ": 1389,
      "ä¼¤": 1390,
      "çĸ¾": 1391,
      "æ½": 1392,
      "æĭħ": 1393,
      "æ¶²": 1394,
      "å¼Ģå±ķ": 1395,
      "é¢ĨåŁŁ": 1396,
      "ä»£è¡¨": 1397,
      "å¸®": 1398,
      "çīĪ": 1399,
      "ç½Ĺ": 1400,
      "èģļ": 1401,
      "ç»§": 1402,
      "å¾ħ": 1403,
      "ç¿": 1404,
      "åı¦": 1405,
      "çĶ³": 1406,
      "ä¸ĢæŃ¥": 1407,
      "æ³¨æĦı": 1408,
      ":âĢľ": 1409,
      "äºĨè§£": 1410,
      "30": 1411,
      "å¿ħé¡»": 1412,
      "å»ºçŃĳ": 1413,
      "é¢Ĩå¯¼": 1414,
      "å·´": 1415,
      "æ°´å¹³": 1416,
      "ç«ŀ": 1417,
      "ç»¼": 1418,
      "å·®": 1419,
      "åĿļæĮģ": 1420,
      "äºĳ": 1421,
      "åĪ»": 1422,
      "ç§¯æŀģ": 1423,
      "æ¯Ķè¾ĥ": 1424,
      "ä¸°": 1425,
      "å·¥ä¸ļ": 1426,
      "æĹħ": 1427,
      "è¯¾": 1428,
      "æ¦": 1429,
      "åħŃ": 1430,
      "é¸": 1431,
      "åĨ·": 1432,
      "çĭ¬": 1433,
      "--": 1434,
      "ä¸´": 1435,
      "éķĩ": 1436,
      "æŃ¦": 1437,
      "æıĲåįĩ": 1438,
      "ç»ĵæŀĦ": 1439,
      "èīºæľ¯": 1440,
      "éĨ": 1441,
      "å¼Ĥ": 1442,
      "202": 1443,
      "å¢ŀåĬł": 1444,
      "åľ°åĮº": 1445,
      "ç¾İåĽ½": 1446,
      "ä½Ļ": 1447,
      "éº": 1448,
      "è§Ħå®ļ": 1449,
      "è´Ń": 1450,
      "æĺŁ": 1451,
      "åĩ»": 1452,
      "èĹ": 1453,
      "ç´§": 1454,
      "æī§": 1455,
      "ç¬¬äºĮ": 1456,
      "å®¢æĪ·": 1457,
      "åįł": 1458,
      "é»ĳ": 1459,
      "ç¯": 1460,
      "å¸ĮæľĽ": 1461,
      "ä¹¡": 1462,
      "æİ§åĪ¶": 1463,
      "åĪĨæŀĲ": 1464,
      "ä¸įä¼ļ": 1465,
      "æĪĳåĽ½": 1466,
      "ä¼łç»Ł": 1467,
      "åĬ³": 1468,
      "èĳĹ": 1469,
      "æľīéĻĲåħ¬åı¸": 1470,
      "åį¡": 1471,
      "æĹ¶ä»£": 1472,
      "æ¯Ĵ": 1473,
      "æĶ¿æ²»": 1474,
      "è¿ĺæĺ¯": 1475,
      "å¢ŀéķ¿": 1476,
      "æĶ¹éĿ©": 1477,
      "æĺ¥": 1478,
      "ç»ıèĲ¥": 1479,
      "æ¹ĸ": 1480,
      "è´§": 1481,
      "éĤ£ä¹Ī": 1482,
      "ĠãĢģ": 1483,
      "å¤®": 1484,
      "èĪª": 1485,
      "æ°§": 1486,
      "å½¢æĪĲ": 1487,
      "å®ĮæĪĲ": 1488,
      "æī¾": 1489,
      "åįĥ": 1490,
      "åĽº": 1491,
      "ä¸ĬçļĦ": 1492,
      "é¥®": 1493,
      "æ¬¢": 1494,
      "éĢģ": 1495,
      "äº§çĶŁ": 1496,
      "åºĹ": 1497,
      "çİ°ä»£": 1498,
      "èıľ": 1499,
      "çĤİ": 1500,
      "ä¿ĿæĬ¤": 1501,
      "èĢĲ": 1502,
      "éĴŁ": 1503,
      "åĬłå¼º": 1504,
      "åĵģçīĮ": 1505,
      "å¹´çļĦ": 1506,
      "é¢ĳ": 1507,
      "åħ³ç³»": 1508,
      "æĢĿæĥ³": 1509,
      "æĸ°çļĦ": 1510,
      "è®¤ä¸º": 1511,
      "æŁĲ": 1512,
      "åĲĦç§į": 1513,
      "æľīæķĪ": 1514,
      "é¢Ŀ": 1515,
      "æ¯į": 1516,
      "æĶ¿çŃĸ": 1517,
      "åıĳçİ°": 1518,
      "çº³": 1519,
      "åħ°": 1520,
      "çŁŃ": 1521,
      "èĢĮä¸Ķ": 1522,
      "æĿ¥çļĦ": 1523,
      "åŁºæľ¬": 1524,
      "æĽ´åĬł": 1525,
      "åı¥": 1526,
      "åº§": 1527,
      "ä¸ªäºº": 1528,
      "äºĨä¸Ģ": 1529,
      "æĮ¥": 1530,
      "ç»¼åĲĪ": 1531,
      "å½ķ": 1532,
      "å¹³åı°": 1533,
      "åĲ¦": 1534,
      "åĽ½åĨħ": 1535,
      "çĤº": 1536,
      "åĨħå®¹": 1537,
      "ç»¿": 1538,
      "ç§»": 1539,
      "å¯¼èĩ´": 1540,
      "å¾ģ": 1541,
      "éľĢæ±Ĥ": 1542,
      "éĩĩçĶ¨": 1543,
      "ãĢĮ": 1544,
      "ç¼ĸ": 1545,
      "å®¹æĺĵ": 1546,
      "åºŃ": 1547,
      "è´£ä»»": 1548,
      "ãĢį": 1549,
      "æįŁ": 1550,
      "å¼Ģåıĳ": 1551,
      "è§£åĨ³": 1552,
      "æİ¨åĬ¨": 1553,
      "åŃ¦éĻ¢": 1554,
      "ä¹¦è®°": 1555,
      "ä¼ļè®®": 1556,
      "çī¹åĪ«": 1557,
      "éģ¿": 1558,
      "æľĥ": 1559,
      "æĦ¿": 1560,
      "äº¿åħĥ": 1561,
      "ç»Ŀ": 1562,
      "åĨĻ": 1563,
      "æ±ī": 1564,
      "åĪ©çĶ¨": 1565,
      "çĴ": 1566,
      "è²": 1567,
      "èĻ½": 1568,
      "çīĽ": 1569,
      "ä¸ļåĬ¡": 1570,
      "æĭ¥": 1571,
      "çĸ¾çĹħ": 1572,
      "ä»¤": 1573,
      "åĵª": 1574,
      "å²ģ": 1575,
      "å¯Ł": 1576,
      "è¯»": 1577,
      "æĶ¯æĮģ": 1578,
      ",âĢľ": 1579,
      "ä¸įä»ħ": 1580,
      "åºı": 1581,
      "æ¬§": 1582,
      "æĤ¨": 1583,
      "ç»ľ": 1584,
      "âĢĶâĢĶ": 1585,
      "åĨł": 1586,
      "çĶ¨äºİ": 1587,
      "ä½ĵç³»": 1588,
      "100": 1589,
      "ä¸ºäºĨ": 1590,
      "æ³¢": 1591,
      "çĶ²": 1592,
      "çĮ®": 1593,
      "æŃ»": 1594,
      "éĢłæĪĲ": 1595,
      "æ¢¦": 1596,
      "é¼": 1597,
      "çļĦæĹ¶åĢĻ": 1598,
      "èĥľ": 1599,
      "),": 1600,
      "ç§Ģ": 1601,
      "çī¹èī²": 1602,
      "æłĳ": 1603,
      "ä¸Ĭæµ·": 1604,
      "æį¢": 1605,
      "æīĢæľī": 1606,
      "ç«ł": 1607,
      "åĲ¬": 1608,
      "å¦Ĥä½ķ": 1609,
      "åį±": 1610,
      "æĸĹ": 1611,
      "ä¿ĿæĮģ": 1612,
      "èŃ¦": 1613,
      "éĺ¿": 1614,
      "è¿°": 1615,
      "éģĩ": 1616,
      "æ±½è½¦": 1617,
      "åĪ¶éĢł": 1618,
      "ç²ī": 1619,
      "è¿Ļä¸Ģ": 1620,
      "ä¹Ŀ": 1621,
      "æ¤į": 1622,
      "æľīåħ³": 1623,
      "èĭı": 1624,
      "å°Ħ": 1625,
      "é£ŀ": 1626,
      "æİ¨è¿Ľ": 1627,
      "æ´Ĺ": 1628,
      "ç»ĥ": 1629,
      "å®ŀæĸ½": 1630,
      "çŁ¥è¯Ĩ": 1631,
      "è¾¾åĪ°": 1632,
      "éĢĲ": 1633,
      "é¡º": 1634,
      "æĿ¡ä»¶": 1635,
      "é¤": 1636,
      "åª": 1637,
      "åŃĺåľ¨": 1638,
      "ä¹ħ": 1639,
      "åı³": 1640,
      "äººæīį": 1641,
      "ä»ª": 1642,
      "éĩįçĤ¹": 1643,
      "çĽ®æłĩ": 1644,
      "ä¸Ńå¤®": 1645,
      "çŁ¥éģĵ": 1646,
      "æķĪæŀľ": 1647,
      "æĩ": 1648,
      "åľ°æĸ¹": 1649,
      "çĶļ": 1650,
      "è¿Ľä¸ĢæŃ¥": 1651,
      "èĮ¶": 1652,
      "ç»į": 1653,
      "å·¦": 1654,
      "çĹĽ": 1655,
      "èģĮä¸ļ": 1656,
      "æĪı": 1657,
      "ç«¯": 1658,
      "èĩªçĦ¶": 1659,
      "æĴŃ": 1660,
      "æıĲåĩº": 1661,
      "åħļçļĦ": 1662,
      "å®Ī": 1663,
      "ä¹ĭåĲİ": 1664,
      "è´Łè´£": 1665,
      "æĭĽ": 1666,
      "æ´²": 1667,
      "18": 1668,
      "å°¼": 1669,
      "ä»·æł¼": 1670,
      "æ¶Īè´¹": 1671,
      "åĪ¶åº¦": 1672,
      "é£Łåĵģ": 1673,
      "Â·": 1674,
      "ä¼¼": 1675,
      "éĸ": 1676,
      "æķĻåŃ¦": 1677,
      "æĵį": 1678,
      "åĩĢ": 1679,
      "ç»ĵåĲĪ": 1680,
      "æĢİ": 1681,
      "%,": 1682,
      "50": 1683,
      "å³": 1684,
      "åŁ¹åħ»": 1685,
      "æĿ¥è¯´": 1686,
      "è¿½": 1687,
      "åºĶè¯¥": 1688,
      "æİĪ": 1689,
      "åŃķ": 1690,
      "å¥Ĺ": 1691,
      "å½©": 1692,
      "ä¸Ģèµ·": 1693,
      "å®ŀéĻħ": 1694,
      "ä»į": 1695,
      "å¤«": 1696,
      "ä¸įè¦ģ": 1697,
      "è¿ĺæľī": 1698,
      "åĬª": 1699,
      "ä¸ĥ": 1700,
      "å±Ĭ": 1701,
      "æĻĤ": 1702,
      "è¿ĲåĬ¨": 1703,
      "æĢ¥": 1704,
      "åıĸå¾Ĺ": 1705,
      "äº¤éĢļ": 1706,
      "è½®": 1707,
      "æĽ´å¤ļ": 1708,
      "éĴĪ": 1709,
      "ç½ĳç»ľ": 1710,
      "èº«ä½ĵ": 1711,
      "è¯Ĭ": 1712,
      "èĤ¤": 1713,
      "åİŁåĽł": 1714,
      "ä¹ĭä¸Ģ": 1715,
      "ç´¢": 1716,
      "æ¯ĶèµĽ": 1717,
      "å»ºç«ĭ": 1718,
      "éĻĪ": 1719,
      "åħ¸": 1720,
      "æĮģç»Ń": 1721,
      "åĽ°": 1722,
      "çĪ¶": 1723,
      "å¸®åĬ©": 1724,
      "åĳ¢": 1725,
      "æİ¢": 1726,
      "çĻ»": 1727,
      "è¿Ļæĺ¯": 1728,
      "æķ£": 1729,
      "æİª": 1730,
      "éĢĢ": 1731,
      "è·µ": 1732,
      "æ°ĳæĹı": 1733,
      "æĭ¥æľī": 1734,
      "éĢı": 1735,
      "ä¼ĺåĬ¿": 1736,
      "ä»·åĢ¼": 1737,
      "èĥ¶": 1738,
      "ä¹°": 1739,
      "äºĪ": 1740,
      "èįī": 1741,
      "å¥ĭ": 1742,
      "ä¿ĥè¿Ľ": 1743,
      "16": 1744,
      "å¡ĳ": 1745,
      "éŃ": 1746,
      "çĽ´æİ¥": 1747,
      "ä»ĭç»į": 1748,
      "è¿Ľåħ¥": 1749,
      "åĨ²": 1750,
      "éļıçĿĢ": 1751,
      "èĽ": 1752,
      "éĺ¶": 1753,
      "èĤī": 1754,
      "åģľ": 1755,
      "çµ": 1756,
      "éĿł": 1757,
      "éĶĢåĶ®": 1758,
      "çĶŁæĢģ": 1759,
      "èĸ": 1760,
      "äºĶè¡Į": 1761,
      "ä¿Ŀéļľ": 1762,
      "äººä»¬": 1763,
      "èĵ": 1764,
      "éĴ±": 1765,
      "éĽ¨": 1766,
      "è§ĦåĪĴ": 1767,
      "æĪĲåĬŁ": 1768,
      "è·Ł": 1769,
      "ç»©": 1770,
      "åĪĨéĴŁ": 1771,
      "åºĬ": 1772,
      "ä»Ĭå¹´": 1773,
      "æĢĢ": 1774,
      "æĸ½å·¥": 1775,
      "æħ¢": 1776,
      "å¥ĩ": 1777,
      "åıĤåĬł": 1778,
      "è½½": 1779,
      "èį£": 1780,
      "åĬªåĬĽ": 1781,
      "å¸Ń": 1782,
      "ä»»ä½ķ": 1783,
      "çĶļèĩ³": 1784,
      "åĮ»çĸĹ": 1785,
      "å®ģ": 1786,
      "çĶŁçī©": 1787,
      "èĻ½çĦ¶": 1788,
      "æĪĺçķ¥": 1789,
      "è´µ": 1790,
      "èĦ±": 1791,
      "é½": 1792,
      "æĪĲæľ¬": 1793,
      "å®«": 1794,
      "æī©": 1795,
      "èĲ½å®ŀ": 1796,
      "ä»ĺ": 1797,
      "æĻļ": 1798,
      "åĬłå·¥": 1799,
      "è®¡åĪĴ": 1800,
      "ä¸ĢçĽ´": 1801,
      "å¥¥": 1802,
      "ä½ĵèĤ²": 1803,
      "åģĩ": 1804,
      "çĨŁ": 1805,
      "è¿ĩç¨ĭä¸Ń": 1806,
      "æ©": 1807,
      "ç»§ç»Ń": 1808,
      "æ³Ľ": 1809,
      "çİ»": 1810,
      "ç½ª": 1811,
      "åªĴ": 1812,
      "å§Ķåĳĺ": 1813,
      "é¦Ĩ": 1814,
      "èĭ¦": 1815,
      "åħ±åĲĮ": 1816,
      "ç¥¨": 1817,
      "å¾ĹåĪ°": 1818,
      "ä¸¥éĩį": 1819,
      "äºĭä¸ļ": 1820,
      "çģµ": 1821,
      "è¡Įä¸º": 1822,
      "åĢŁ": 1823,
      "åħ¨çĲĥ": 1824,
      "çļĦåıĳå±ķ": 1825,
      "ç¨³å®ļ": 1826,
      "æľĭ": 1827,
      "ä¸°å¯Į": 1828,
      "æ¯Ľ": 1829,
      "åħħåĪĨ": 1830,
      "èıĮ": 1831,
      "åıĳæĮ¥": 1832,
      "å»¶": 1833,
      "ä½³": 1834,
      "è¯ī": 1835,
      "æĿ¾": 1836,
      "åŁ¹è®Ń": 1837,
      "æĶ»": 1838,
      "æĢ§èĥ½": 1839,
      "æīĺ": 1840,
      "éĶ®": 1841,
      "éĶĻ": 1842,
      "æŃĮ": 1843,
      "æĻºèĥ½": 1844,
      "åİļ": 1845,
      "ä¹ĭéĹ´": 1846,
      "èĦĳ": 1847,
      "å®Ĺ": 1848,
      "åĪĺ": 1849,
      "æķĻå¸Ī": 1850,
      "åĺ": 1851,
      "æ¢°": 1852,
      "å¨ģ": 1853,
      "éł": 1854,
      "åıªæľī": 1855,
      "è¶ħè¿ĩ": 1856,
      "åı¶": 1857,
      "äº«": 1858,
      "æĮīçħ§": 1859,
      "ç¦ģ": 1860,
      "ä¹İ": 1861,
      "çļĦéĩįè¦ģ": 1862,
      "ä¸ĵå®¶": 1863,
      "ç¶": 1864,
      "åºĨ": 1865,
      "è§Ħæ¨¡": 1866,
      "èĥĮ": 1867,
      "åıĬæĹ¶": 1868,
      "åĲ¯": 1869,
      "å¦ĩ": 1870,
      "14": 1871,
      "æīįèĥ½": 1872,
      "æ¾": 1873,
      "æ¡¥": 1874,
      "æ£ĢæŁ¥": 1875,
      "çļĦå¤§": 1876,
      "è¯ļ": 1877,
      "éĢĻ": 1878,
      "è½¯": 1879,
      "è´¯": 1880,
      "å®¶åºŃ": 1881,
      "çĴĥ": 1882,
      "æ¯ķ": 1883,
      "åĿĹ": 1884,
      "çĺ": 1885,
      "éĩĳèŀį": 1886,
      "èĥ½æºĲ": 1887,
      "ä¸¤ä¸ª": 1888,
      "çĶ¨æĪ·": 1889,
      "æĬĵ": 1890,
      "ç³»åĪĹ": 1891,
      "æľĢåĲİ": 1892,
      "çĽĸ": 1893,
      "ä¼Ł": 1894,
      "æ°¸": 1895,
      "æĬ¥åĳĬ": 1896,
      "é²ľ": 1897,
      "13": 1898,
      "éĿĻ": 1899,
      "åĢĭ": 1900,
      "è®¸å¤ļ": 1901,
      "åıĹåĪ°": 1902,
      "èĨľ": 1903,
      "èĻĳ": 1904,
      "çĥĪ": 1905,
      "æľĿ": 1906,
      "ç«¥": 1907,
      "æľĭåıĭ": 1908,
      "æĿĤ": 1909,
      "åıĺåĮĸ": 1910,
      "çĶµå½±": 1911,
      "æł¸å¿ĥ": 1912,
      "ä»ĸçļĦ": 1913,
      "è°¢": 1914,
      "çĬ¯": 1915,
      "åıĤä¸İ": 1916,
      "æ´ģ": 1917,
      "æı¡": 1918,
      "è³": 1919,
      "æĢ§çļĦ": 1920,
      "çĥŁ": 1921,
      "éĻĦ": 1922,
      "åĽłç´ł": 1923,
      "å®ĮåĸĦ": 1924,
      "å½»": 1925,
      "çĸĳ": 1926,
      "æ¶ī": 1927,
      "è¿İ": 1928,
      "æĪĲç«ĭ": 1929,
      "åĩıå°ĳ": 1930,
      "ä¸ĩåħĥ": 1931,
      "ç»ıè¿ĩ": 1932,
      "å¼ķèµ·": 1933,
      "å°¤": 1934,
      "åĪļ": 1935,
      "ä¸Ģç§į": 1936,
      "å·¥èīº": 1937,
      "èĮĥåĽ´": 1938,
      "åĪ¤": 1939,
      "èļ": 1940,
      "éģ¿åħį": 1941,
      "çİ»çĴĥ": 1942,
      "æĽ²": 1943,
      "èĥŀ": 1944,
      "æ²Ļ": 1945,
      "çļ®èĤ¤": 1946,
      "æ´¾": 1947,
      "ä¸įåı¯": 1948,
      "æ¶Ĥ": 1949,
      "ç¡¬": 1950,
      "ç«ŀäºī": 1951,
      "æ³ķå¾ĭ": 1952,
      "æĹħæ¸¸": 1953,
      "åºŁ": 1954,
      "éĹ»": 1955,
      "éļĶ": 1956,
      "ä¿Ŀè¯ģ": 1957,
      "éģĹ": 1958,
      "åħ³äºİ": 1959,
      "è´¸": 1960,
      "éĿ¢ç§¯": 1961,
      "èģĶç½ĳ": 1962,
      "çĶ³è¯·": 1963,
      "å®ŀè·µ": 1964,
      "å°ģ": 1965,
      "æ¥¼": 1966,
      "åĨ³å®ļ": 1967,
      "ä»¥æĿ¥": 1968,
      "äº¤æµģ": 1969,
      "ä»¥ä¸ĭ": 1970,
      "éĩįå¤§": 1971,
      "çī¹çĤ¹": 1972,
      "%ãĢĤ": 1973,
      "ä¸Ńåįİ": 1974,
      "æ¨¡å¼ı": 1975,
      "çłĶåıĳ": 1976,
      "çŃĶ": 1977,
      "ç¤¾ä¼ļä¸»ä¹ī": 1978,
      "å¹´æĿ¥": 1979,
      "ç¬¬ä¸ī": 1980,
      "çĶµåŃĲ": 1981,
      "åį«çĶŁ": 1982,
      "åıĳå±ķçļĦ": 1983,
      "ç¹": 1984,
      "ç»ıéªĮ": 1985,
      "èħĲ": 1986,
      "æĸ¹æ¡Ī": 1987,
      "æľªæĿ¥": 1988,
      "ä¸Ģæł·": 1989,
      "åĳĺå·¥": 1990,
      "äº®": 1991,
      "éķ¿æľŁ": 1992,
      "æľīçļĦ": 1993,
      "è°Ī": 1994,
      "é£İéĻ©": 1995,
      "èµ·æĿ¥": 1996,
      "é¤Ĳ": 1997,
      "ä¸Ģæ¬¡": 1998,
      "åĨĮ": 1999,
      "çĿ£": 2000,
      "çĲĨè®º": 2001,
      "é¡¾": 2002,
      "æĭ¿": 2003,
      "åĬĽéĩı": 2004,
      "åģļå¥½": 2005,
      "æĺ¾ç¤º": 2006,
      "ä¸½": 2007,
      "èĦĤ": 2008,
      "æİĮ": 2009,
      "æŀ¶": 2010,
      "èĭ¥": 2011,
      "æĪĳçļĦ": 2012,
      "æĺ¯ä¸Ģç§į": 2013,
      "æ¸Ĳ": 2014,
      "å©ļ": 2015,
      "éĻįä½İ": 2016,
      "è¡¨çİ°": 2017,
      "æĹ¢": 2018,
      "æķĳ": 2019,
      "æ¶¦": 2020,
      "éĽ¶": 2021,
      "åħ³éĶ®": 2022,
      "å½¢å¼ı": 2023,
      "å¦Ī": 2024,
      "è¡ĮæĶ¿": 2025,
      "åŃ¸": 2026,
      "çĸ«æĥħ": 2027,
      "æĿ¯": 2028,
      "åĪº": 2029,
      "åºĵ": 2030,
      "åĬ±": 2031,
      "å·¨": 2032,
      "éĺ´": 2033,
      "çĽŁ": 2034,
      "åĽ¢éĺŁ": 2035,
      "å¿ĥçĲĨ": 2036,
      "èĹı": 2037,
      "ç¬¦": 2038,
      "å¤ı": 2039,
      "ä»»åĬ¡": 2040,
      "æĺ¯åľ¨": 2041,
      "ä¾Ĩ": 2042,
      "è¡¨éĿ¢": 2043,
      "æī¬": 2044,
      "è®°èĢħ": 2045,
      "è¿ĳå¹³": 2046,
      "è®¾æĸ½": 2047,
      "ç¢³": 2048,
      "å®ľ": 2049,
      "çĶ°": 2050,
      "å¹¸": 2051,
      "ãĢĭ,": 2052,
      "èĦļ": 2053,
      "æĵįä½ľ": 2054,
      "ç£¨": 2055,
      "åľĭ": 2056,
      "çĽĽ": 2057,
      "å¹¿æ³Ľ": 2058,
      "éĽ·": 2059,
      "æĮĩå¯¼": 2060,
      "éĵ¶è¡Į": 2061,
      "æŃ£å¸¸": 2062,
      "ä¼ĺç§Ģ": 2063,
      "å®£ä¼ł": 2064,
      "å»ºè®®": 2065,
      "éª¨": 2066,
      "åİħ": 2067,
      "çĩĥ": 2068,
      "æĹ¥æľ¬": 2069,
      "çº¸": 2070,
      "çİ©": 2071,
      "çĳ": 2072,
      "çŃ¾": 2073,
      "ä¹łè¿ĳå¹³": 2074,
      "åİĭåĬĽ": 2075,
      ")ãĢĤ": 2076,
      "æİªæĸ½": 2077,
      "åĳ¼": 2078,
      "æľŁéĹ´": 2079,
      "å¼±": 2080,
      "èĶ": 2081,
      "ç©¿": 2082,
      "èµĦéĩĳ": 2083,
      "è´¡": 2084,
      "ç»ĵæŀľ": 2085,
      "å°±ä¼ļ": 2086,
      "å¢ŀå¼º": 2087,
      "åħ·ä½ĵ": 2088,
      "å·¦åı³": 2089,
      "ä½łçļĦ": 2090,
      "æĶ¶åħ¥": 2091,
      "æİ¥åıĹ": 2092,
      "æĢİä¹Ī": 2093,
      "ä¸Ŀ": 2094,
      "ç³ĸ": 2095,
      "é±": 2096,
      "åĩĿ": 2097,
      "è¿Ŀ": 2098,
      "çī©è´¨": 2099,
      "å¤§éĩı": 2100,
      "ç»´æĬ¤": 2101,
      "è´«": 2102,
      "ãĢĤâĢľ": 2103,
      "æ£Ģæµĭ": 2104,
      "éľ²": 2105,
      "æ»ĳ": 2106,
      "åħĪè¿Ľ": 2107,
      "17": 2108,
      "åĪĽéĢł": 2109,
      ")ãĢģ": 2110,
      "è¯į": 2111,
      "000": 2112,
      "çļĦäºĭ": 2113,
      "æĮ¯": 2114,
      "æ»¡è¶³": 2115,
      "æĦıä¹ī": 2116,
      "çļĦé«ĺ": 2117,
      "æ±ł": 2118,
      "é¥°": 2119,
      "çŁ¿": 2120,
      "çĦ¶åĲİ": 2121,
      "æĹłæ³ķ": 2122,
      "åıĳå¸ĥ": 2123,
      "è¾Ĩ": 2124,
      "æľºæ¢°": 2125,
      "ç©ºéĹ´": 2126,
      "æ±¡æŁĵ": 2127,
      "å¹ħ": 2128,
      "ç¾¤ä¼Ĺ": 2129,
      "ä¼´": 2130,
      "çī©æµģ": 2131,
      "ä¸įè¿ĩ": 2132,
      "æĸ¹åĲĳ": 2133,
      "è´¥": 2134,
      "âĢĿãĢģ": 2135,
      "æĺ¯åĲ¦": 2136,
      "éĻĨ": 2137,
      "å¥³æĢ§": 2138,
      "å¤ľ": 2139,
      "æ·±åħ¥": 2140,
      "æ¸¸æĪı": 2141,
      "æĿ¨": 2142,
      "åĬ³åĬ¨": 2143,
      "40": 2144,
      "60": 2145,
      "åĲī": 2146,
      "æ¹¿": 2147,
      "çİ°åľº": 2148,
      "æĮĩåĩº": 2149,
      "25": 2150,
      "ç®Ģåįķ": 2151,
      "æĿĢ": 2152,
      "èĩªåĬ¨": 2153,
      "éĻ¤äºĨ": 2154,
      "ç»Ĩèĥŀ": 2155,
      "é±¼": 2156,
      "æ³¨åĨĮ": 2157,
      "å®Įåħ¨": 2158,
      "ä¼ĳ": 2159,
      "å¹¶ä¸Ķ": 2160,
      "åĮĸçļĦ": 2161,
      "éĺ¶æ®µ": 2162,
      "æĪĳä»¬çļĦ": 2163,
      "è®¿": 2164,
      "çĲĨå¿µ": 2165,
      "åĭĩ": 2166,
      "æĪĲæŀľ": 2167,
      "å®īè£ħ": 2168,
      "çļĦæĥħåĨµ": 2169,
      "åħ¶å®ŀ": 2170,
      "æ··": 2171,
      "é£Łçī©": 2172,
      "èľ": 2173,
      "åģı": 2174,
      "çłģ": 2175,
      "å·Ŀ": 2176,
      "çĽĺ": 2177,
      "é«ĺçļĦ": 2178,
      "æ¯Ķå¦Ĥ": 2179,
      "è¸": 2180,
      "å¼ĢæĶ¾": 2181,
      "èĪŀ": 2182,
      "èģĶåĲĪ": 2183,
      "ä»İèĢĮ": 2184,
      "è¡ĮåĬ¨": 2185,
      "éĵ¾": 2186,
      "å´": 2187,
      "æ¦Ĥ": 2188,
      "æ²ī": 2189,
      "å®ŀéªĮ": 2190,
      "ç´¯": 2191,
      "èĽĭ": 2192,
      "äº¤æĺĵ": 2193,
      "éĺ»": 2194,
      "åıªæĺ¯": 2195,
      "çĹĩçĬ¶": 2196,
      "æĦıè¯Ĩ": 2197,
      "åĮºåŁŁ": 2198,
      "éĽĦ": 2199,
      "å¸ģ": 2200,
      "ä¹Łæľī": 2201,
      "å¿«éĢŁ": 2202,
      "æĸĳ": 2203,
      "åĩºäºĨ": 2204,
      "åĪĨåĪ«": 2205,
      "é¹": 2206,
      "ä¸įå¾Ĺ": 2207,
      "åĨ¬": 2208,
      "åįģåĪĨ": 2209,
      "å°ļ": 2210,
      "è±Ĩ": 2211,
      "æ¸©åº¦": 2212,
      "åŁºåľ°": 2213,
      "çİī": 2214,
      "åºĶå½ĵ": 2215,
      "çľĭåĪ°": 2216,
      "ä¸»ä»»": 2217,
      "æĸĩæĺİ": 2218,
      "èªī": 2219,
      "é½Ĳ": 2220,
      "ç®±": 2221,
      "çĶŁåĳ½": 2222,
      "åĿı": 2223,
      "åĤ¨": 2224,
      "çļĦæĸ°": 2225,
      "å¢Ļ": 2226,
      "è®¨": 2227,
      "ç¬ĳ": 2228,
      "æļĸ": 2229,
      "è¯Ĺ": 2230,
      "åįĪ": 2231,
      "æķ°åŃĹ": 2232,
      "æĮĳ": 2233,
      "å³°": 2234,
      "å¸Ŀ": 2235,
      "è§¦": 2236,
      "è§ĦèĮĥ": 2237,
      "åĨľä¸ļ": 2238,
      "ç»ıå¸¸": 2239,
      "æĺİæĺ¾": 2240,
      "çĶŁçļĦ": 2241,
      "çĻĮ": 2242,
      "ç¨ĭåº¦": 2243,
      "äºĴèģĶç½ĳ": 2244,
      "å«": 2245,
      "èĥİ": 2246,
      "å¹²éĥ¨": 2247,
      "ç¡®ä¿Ŀ": 2248,
      "ä½ľåĵģ": 2249,
      "é¡¶": 2250,
      "è·Ŀ": 2251,
      "ç¼ĵ": 2252,
      "å¸¦æĿ¥": 2253,
      "çĬ¶æĢģ": 2254,
      "åĲĪçĲĨ": 2255,
      "æŃ¤å¤ĸ": 2256,
      "çļĦè¯Ŀ": 2257,
      "åĲĹ": 2258,
      "è®¡ç®Ĺ": 2259,
      "åĲ§": 2260,
      "ä½Ľ": 2261,
      "çİ¯ä¿Ŀ": 2262,
      "åħ³æ³¨": 2263,
      "è°ĥæķ´": 2264,
      "è¿Ĳè¡Į": 2265,
      "åłĤ": 2266,
      "2020": 2267,
      "è¿ĻéĩĮ": 2268,
      "æ±ĩ": 2269,
      "åĢĴ": 2270,
      "èµĦäº§": 2271,
      "åĨ°": 2272,
      "è´¡çĮ®": 2273,
      "èĢĥèĻĳ": 2274,
      "ä»Ĭå¤©": 2275,
      "æīĵéĢł": 2276,
      "å½Ĵ": 2277,
      "æģ¶": 2278,
      "åĶĲ": 2279,
      "èĢĥè¯ķ": 2280,
      "éĽª": 2281,
      "åĸľæ¬¢": 2282,
      "é¼ĵ": 2283,
      "çļĩ": 2284,
      "é¦ĸåħĪ": 2285,
      "åĦ¿ç«¥": 2286,
      "å°¤åħ¶": 2287,
      "èī¯å¥½çļĦ": 2288,
      "ä¹³": 2289,
      "éģİ": 2290,
      "åĵĪ": 2291,
      "ç©ºæ°Ķ": 2292,
      "åªĴä½ĵ": 2293,
      "æĺİç¡®": 2294,
      "è¶ĬæĿ¥": 2295,
      "ç§ĺ": 2296,
      "çĻ¼": 2297,
      "æķħäºĭ": 2298,
      "æ°§åĮĸ": 2299,
      "çļĦéĹ®é¢ĺ": 2300,
      "æī§è¡Į": 2301,
      "è¼": 2302,
      "èĤ¥": 2303,
      "åĪ¶ä½ľ": 2304,
      "åĮĸåŃ¦": 2305,
      "çľŁæŃ£": 2306,
      "è¶ĬæĿ¥è¶Ĭ": 2307,
      "è¡Ĺ": 2308,
      "å¥¶": 2309,
      "24": 2310,
      "2018": 2311,
      "éĢĶ": 2312,
      "è¡£": 2313,
      "æķı": 2314,
      "æľºåĪ¶": 2315,
      "ç¤¼": 2316,
      "æŃ£åľ¨": 2317,
      "çļĦå·¥ä½ľ": 2318,
      "è¡¡": 2319,
      "åħµ": 2320,
      "è¯¯": 2321,
      "åı¥è¯Ŀ": 2322,
      "èµĦæľ¬": 2323,
      "æľ«": 2324,
      "æĺ¯ä¸Ģä¸ª": 2325,
      "ä¸¥æł¼": 2326,
      "__": 2327,
      "æĿŁ": 2328,
      "ç¹ģ": 2329,
      "èĲ¥åħ»": 2330,
      "å²Ĺ": 2331,
      "è¶£": 2332,
      "éĥ½æľī": 2333,
      "è´¯å½»": 2334,
      "çīĻ": 2335,
      "äºĮåįģ": 2336,
      "ç½ĳç«Ļ": 2337,
      "ä¸įåĲĮçļĦ": 2338,
      "é¢ľ": 2339,
      "ç»ĦæĪĲ": 2340,
      "ä¸ªæľĪ": 2341,
      "åĳĪ": 2342,
      "èĩªèº«": 2343,
      "çĪĨ": 2344,
      "æĬĺ": 2345,
      "æ®Ĭ": 2346,
      "ç¬¦åĲĪ": 2347,
      "ç§ģ": 2348,
      "æ´¥": 2349,
      "åĢĳ": 2350,
      "ç¼©": 2351,
      "ç½²": 2352,
      "æľīäºĽ": 2353,
      "ç»¿èī²": 2354,
      "2021": 2355,
      "è©": 2356,
      "æĥł": 2357,
      "æ¢ģ": 2358,
      "æĳĦ": 2359,
      "æ´ĭ": 2360,
      "éĩįè¦ģçļĦ": 2361,
      "éĩĬ": 2362,
      "çĥ§": 2363,
      "å®½": 2364,
      "å°į": 2365,
      "ä¹Łä¸į": 2366,
      "å¾ª": 2367,
      "æī¶": 2368,
      "åģļåĪ°": 2369,
      "éŁ©": 2370,
      "æ½®": 2371,
      "ç½ļ": 2372,
      "åħļåĳĺ": 2373,
      "åħ¬åħ±": 2374,
      "æĺł": 2375,
      "å°¿": 2376,
      "æľīä¸Ģ": 2377,
      "å¡Ķ": 2378,
      "å±ŀäºİ": 2379,
      "è¯¢": 2380,
      "çº·": 2381,
      "æ¯ķä¸ļ": 2382,
      "åľĨ": 2383,
      "åĬłå¿«": 2384,
      "21": 2385,
      "æĹ¶æľŁ": 2386,
      "2019": 2387,
      "æĢķ": 2388,
      "åħļå§Ķ": 2389,
      "å°ıæĹ¶": 2390,
      "åĬŀåħ¬": 2391,
      "å§Ķåĳĺä¼ļ": 2392,
      "è·¨": 2393,
      "æľºåħ³": 2394,
      "ç¬Ķ": 2395,
      "èĥĥ": 2396,
      "åı¦å¤ĸ": 2397,
      "æ³¡": 2398,
      "è´´": 2399,
      "èĢģå¸Ī": 2400,
      "åĩºåı£": 2401,
      "èį¯çī©": 2402,
      "æľīæľº": 2403,
      "äººç±»": 2404,
      "æħ§": 2405,
      "å¹ķ": 2406,
      "èĻļ": 2407,
      "çĽĲ": 2408,
      "ç»Łä¸Ģ": 2409,
      "åĩºçļĦ": 2410,
      "ä½ĵçļĦ": 2411,
      "å¤ļç§į": 2412,
      "ä¿ĿéĻ©": 2413,
      "ä¸Ģä¸ĭ": 2414,
      "æĪĲç»©": 2415,
      "èĳ£": 2416,
      "æĭĵ": 2417,
      "å°±ä¸ļ": 2418,
      "å¡ŀ": 2419,
      "èĪ¹": 2420,
      "ä¹Ļ": 2421,
      "ä¸ŃåĮ»": 2422,
      "åĲİçļĦ": 2423,
      "199": 2424,
      "æĿ¥çľĭ": 2425,
      "ä¸»é¢ĺ": 2426,
      "éģĵè·¯": 2427,
      "è®¢": 2428,
      "æ³°": 2429,
      "èĢ³": 2430,
      "èĤº": 2431,
      "ç¥ĸ": 2432,
      "æ¾³": 2433,
      "çĦ¦": 2434,
      "éĽĨä¸Ń": 2435,
      "æķ´ä¸ª": 2436,
      "ä¼°": 2437,
      "ä¼ģä¸ļçļĦ": 2438,
      "åĢį": 2439,
      "åı«": 2440,
      "æµĵ": 2441,
      "æľĢç»Ī": 2442,
      "éĵĿ": 2443,
      "éĢĤåĲĪ": 2444,
      "80": 2445,
      "æĦŁæŁĵ": 2446,
      "æĶ¹åıĺ": 2447,
      "æĶ¹åĸĦ": 2448,
      "ç§ĳçłĶ": 2449,
      "ç§ĭ": 2450,
      "è§Ĩé¢ĳ": 2451,
      "æĦıè§ģ": 2452,
      "åķĨä¸ļ": 2453,
      "åķĨåĵģ": 2454,
      "æĻ®éĢļ": 2455,
      "èĪĩ": 2456,
      "åİŁåĪĻ": 2457,
      "å²Ľ": 2458,
      "è®¤çľŁ": 2459,
      "æĸ¼": 2460,
      "----": 2461,
      "±ä¹Ĳ": 2462,
      "éļĲ": 2463,
      "éĢŁåº¦": 2464,
      "23": 2465,
      "è¿ħ": 2466,
      "éĩİ": 2467,
      "éĩĳå±ŀ": 2468,
      "é²ģ": 2469,
      "éĴĪå¯¹": 2470,
      "åĢº": 2471,
      "çĽ®çļĦ": 2472,
      "å¯»": 2473,
      "èĢģå¹´": 2474,
      "ä¹ĭåīį": 2475,
      "è¿Ĳè¾ĵ": 2476,
      "æ²»çĲĨ": 2477,
      "çĲĨè§£": 2478,
      "æĸ°æĹ¶ä»£": 2479,
      "è¿ĩåİ»": 2480,
      "å¹¶ä¸į": 2481,
      "å¯¿": 2482,
      "ä¹Łä¼ļ": 2483,
      "ç¡®å®ļ": 2484,
      "éĿ¢å¯¹": 2485,
      "æĹ§": 2486,
      "æĥ¯": 2487,
      "ä¾§": 2488,
      "åĪĳ": 2489,
      "è·ĳ": 2490,
      "æ¶¨": 2491,
      "çĶµè§Ĩ": 2492,
      "åĮ»çĶŁ": 2493,
      "åĸĿ": 2494,
      "æ¡£": 2495,
      "è®¤è¯Ĩ": 2496,
      "èĴĻ": 2497,
      "22": 2498,
      "å¤ļçļĦ": 2499,
      "åĲĮå¿Ĺ": 2500,
      "æķĪçİĩ": 2501,
      "éĿĴå¹´": 2502,
      "æµª": 2503,
      "éĥ½ä¼ļ": 2504,
      "æİī": 2505,
      "æĭį": 2506,
      "èĩªçĶ±": 2507,
      "åĶ±": 2508,
      "ç§Ł": 2509,
      "åħ¨éĥ¨": 2510,
      "ä¸ĭéĻį": 2511,
      "çī¹æ®Ĭ": 2512,
      "éĵľ": 2513,
      "è§Ī": 2514,
      "åĩĨå¤ĩ": 2515,
      "æŃ£å¼ı": 2516,
      "å½ĵæĹ¶": 2517,
      "åŁºéĩĳ": 2518,
      "åĬĽçļĦ": 2519,
      "å½ĵåľ°": 2520,
      "åįµ": 2521,
      "çī¢": 2522,
      "éº»": 2523,
      "èĥ¡": 2524,
      "åıįåºĶ": 2525,
      "èĤ¿": 2526,
      "ç¼ĺ": 2527,
      "ãĢģãĢĬ": 2528,
      "ç¯ĩ": 2529,
      "åį·": 2530,
      "æĪª": 2531,
      "åŃ¦ç§ĳ": 2532,
      "åĿĲ": 2533,
      "è¿Ļæł·çļĦ": 2534,
      "an": 2535,
      "è´·": 2536,
      "æ³¥": 2537,
      "çªĹ": 2538,
      "çħ¤": 2539,
      "æļ´": 2540,
      "ä¼į": 2541,
      "èĤ¯": 2542,
      "å¼ºè°ĥ": 2543,
      "ä¸ģ": 2544,
      "çĿ¡": 2545,
      "æģĴ": 2546,
      "å¹¿å¤§": 2547,
      "åįıä¼ļ": 2548,
      "ãĢĳ": 2549,
      "å¯Ĵ": 2550,
      "éĶħ": 2551,
      "åı¬": 2552,
      "ä¹±": 2553,
      "çģ¯": 2554,
      "è§īå¾Ĺ": 2555,
      "ãĢĲ": 2556,
      "å¾Ħ": 2557,
      "éĹŃ": 2558,
      "åĪ¶å®ļ": 2559,
      "æ¥ļ": 2560,
      "éĩįè§Ĩ": 2561,
      "åħ·å¤ĩ": 2562,
      "æ¶Īè´¹èĢħ": 2563,
      "èĵĿ": 2564,
      "å¿ĺ": 2565,
      "å·¥ä½ľçļĦ": 2566,
      "éĿ©åĳ½": 2567,
      "æĲŃ": 2568,
      "é¾Ħ": 2569,
      "è°ĥæŁ¥": 2570,
      "æł¹æľ¬": 2571,
      "çº¯": 2572,
      "æķĻæİĪ": 2573,
      "ä¸Ģå®ļçļĦ": 2574,
      "èµ¢": 2575,
      "ç»ķ": 2576,
      "æĿ¥èĩª": 2577,
      "åĲĦé¡¹": 2578,
      "é«ĺè´¨éĩı": 2579,
      "æ£®": 2580,
      "æ²Ł": 2581,
      "åıªè¦ģ": 2582,
      "åįĸ": 2583,
      "çĽ¸å¯¹": 2584,
      "çĽĳçĿ£": 2585,
      "ä¸įå°ĳ": 2586,
      "å¦ĤæŃ¤": 2587,
      "æº¶": 2588,
      "å°Ĭ": 2589,
      "æĹĹ": 2590,
      "éĺµ": 2591,
      "åķĨæłĩ": 2592,
      "è¯¦": 2593,
      "æŃ¤æ¬¡": 2594,
      "çģ¾": 2595,
      "ä¼ĺè´¨": 2596,
      "ä¾µ": 2597,
      "æ®ĸ": 2598,
      "ç¶ĵ": 2599,
      "ç¾İåħĥ": 2600,
      "åĪ·": 2601,
      "åĵģè´¨": 2602,
      "çĽ¸ä¿¡": 2603,
      "é¸¡": 2604,
      "2022": 2605,
      "åħ¬éĩĮ": 2606,
      "ç¯®": 2607,
      "èĤĮ": 2608,
      "æĸ¹ä¾¿": 2609,
      "æĬĢèĥ½": 2610,
      "åľĪ": 2611,
      "éģį": 2612,
      "ç¨ĭåºı": 2613,
      "åħ±äº§": 2614,
      "èĴ¸": 2615,
      "è¦Ĩ": 2616,
      "æ²¿": 2617,
      "æŃ£ç¡®": 2618,
      "æķ´ä½ĵ": 2619,
      "éĢļå¸¸": 2620,
      "æĦŁè§ī": 2621,
      "ç¥Ŀ": 2622,
      "å¹¿ä¸ľ": 2623,
      "ä½įäºİ": 2624,
      "æģ¢": 2625,
      "åĬŀæ³ķ": 2626,
      "è¿·": 2627,
      "ä¾Ŀæ³ķ": 2628,
      "æĹ¥å¸¸": 2629,
      "åĭķ": 2630,
      "èĤł": 2631,
      "ä¸ľè¥¿": 2632,
      "70": 2633,
      "èµµ": 2634,
      "åıĮæĸ¹": 2635,
      "åĽ°éļ¾": 2636,
      "çĲĥéĺŁ": 2637,
      "åŃĶ": 2638,
      "æ¯«": 2639,
      "èĢĹ": 2640,
      "è¶ĭ": 2641,
      "å®ĥçļĦ": 2642,
      "éĩĩåıĸ": 2643,
      "æİĮæı¡": 2644,
      "ä»¥åĲİ": 2645,
      "å®īæİĴ": 2646,
      "èĪĴ": 2647,
      "ä¸Ģå®ļè¦ģ": 2648,
      "è¯¾ç¨ĭ": 2649,
      "åĶ¯": 2650,
      "å§ĭç»Ī": 2651,
      "çĶĺ": 2652,
      "ä¾ĽåºĶ": 2653,
      "åĨľæĿĳ": 2654,
      "in": 2655,
      "è¿ĲèĲ¥": 2656,
      "æ¤įçī©": 2657,
      "çĶŁç´ł": 2658,
      "æľºä¼ļ": 2659,
      "é¦Ļæ¸¯": 2660,
      "èģĶç³»": 2661,
      "âĢĿãĢģâĢľ": 2662,
      "å±ĭ": 2663,
      "èµĦæł¼": 2664,
      "å¹³æĸ¹": 2665,
      "ä»İäºĭ": 2666,
      "åĵªäºĽ": 2667,
      "å¤§å¤ļ": 2668,
      "éĨĴ": 2669,
      "åħ¼": 2670,
      "å¾Į": 2671,
      "ä¹łæĥ¯": 2672,
      "æ¯ıå¤©": 2673,
      "è°ģ": 2674,
      "å¼ºåº¦": 2675,
      "åľ³": 2676,
      "æ·±åľ³": 2677,
      "çİ°è±¡": 2678,
      "åĬłåħ¥": 2679,
      "éĽħ": 2680,
      "çı¾": 2681,
      "èļĢ": 2682,
      "åĪºæ¿Ģ": 2683,
      "ç¿»": 2684,
      "çļĦå°ı": 2685,
      "èŀįåĲĪ": 2686,
      "å½ĵçĦ¶": 2687,
      "å·§": 2688,
      "å¼ºåĮĸ": 2689,
      "é«ĺåº¦": 2690,
      "æģ©": 2691,
      "26": 2692,
      "è¾Ľ": 2693,
      "èĤĿ": 2694,
      "æĬķåħ¥": 2695,
      "ç«Ł": 2696,
      "è°ĵ": 2697,
      "åĮ»åŃ¦": 2698,
      "æľ±": 2699,
      "åĩ¡": 2700,
      "æĸ°éĹ»": 2701,
      "é¢Ħéĺ²": 2702,
      "èĢĮæĺ¯": 2703,
      "å¼¹": 2704,
      "ä¸ºä¸»": 2705,
      "æĪĲéķ¿": 2706,
      "å¾Ģå¾Ģ": 2707,
      "æĹłè®º": 2708,
      "äº¡": 2709,
      "éķ·": 2710,
      "æīĭæľº": 2711,
      "çļĦä¸»è¦ģ": 2712,
      "è¿ª": 2713,
      "å¥ĭæĸĹ": 2714,
      "è¯º": 2715,
      "æ¥Ń": 2716,
      "å½¢è±¡": 2717,
      "çİ°ä»£åĮĸ": 2718,
      "æ±¤": 2719,
      "28": 2720,
      "å¾Ĳ": 2721,
      "å±±ä¸ľ": 2722,
      "ç·": 2723,
      "æĹº": 2724,
      "æ°ı": 2725,
      "æ³½": 2726,
      "æ·¡": 2727,
      "éŁ³ä¹Ĳ": 2728,
      "é¥®é£Ł": 2729,
      "çĺ¤": 2730,
      "ä¿Ħ": 2731,
      "æ¶īåıĬ": 2732,
      "åĩºæĿ¥": 2733,
      "é«ĺæł¡": 2734,
      "èĸĦ": 2735,
      "å¹¼": 2736,
      "èį·": 2737,
      "çĹħæĥħ": 2738,
      "æĽ¾ç»ı": 2739,
      "å¹¸ç¦ı": 2740,
      "çļĦæľĢ": 2741,
      "åĲ´": 2742,
      "äººä½ĵ": 2743,
      "åĲĮæ¯Ķ": 2744,
      "åĨįæ¬¡": 2745,
      "æĤī": 2746,
      "çŀ": 2747,
      "é«Ķ": 2748,
      "åĪĨä¸º": 2749,
      "ä»ģ": 2750,
      "æīİ": 2751,
      "ç¤¾åĮº": 2752,
      "è»": 2753,
      "æµĻ": 2754,
      "çĦ¶èĢĮ": 2755,
      "èħ¹": 2756,
      "æĻºæħ§": 2757,
      "ç»ª": 2758,
      "æ¶µ": 2759,
      "ãĢĭãĢģãĢĬ": 2760,
      "ä½įç½®": 2761,
      "æķ°éĩı": 2762,
      "è´¦": 2763,
      "çŃīæĸ¹éĿ¢": 2764,
      "éĺ²æŃ¢": 2765,
      "åı¦ä¸Ģ": 2766,
      "å¤º": 2767,
      "ä»ĸä»¬çļĦ": 2768,
      "ä¾ĭå¦Ĥ": 2769,
      "çĬ¯ç½ª": 2770,
      "åŃĻ": 2771,
      "çĤ¼": 2772,
      "åĲĦç±»": 2773,
      "æĬµ": 2774,
      "ä¸ĭæĿ¥": 2775,
      "æı´": 2776,
      "æķ¬": 2777,
      "åĪĽä¸ļ": 2778,
      "çļĦä½ľçĶ¨": 2779,
      "çŃ¹": 2780,
      "ä¸ŃåĽ½çī¹èī²": 2781,
      "åĮħè£ħ": 2782,
      "è¾ħ": 2783,
      "å¤ļä¸ª": 2784,
      "éī": 2785,
      "å®ĩ": 2786,
      "è®¯": 2787,
      "æľīæīĢ": 2788,
      "ç²Ĵ": 2789,
      "é»ĺ": 2790,
      "è´¸æĺĵ": 2791,
      "èµĦæĸĻ": 2792,
      "éĶĭ": 2793,
      "å¿ħè¦ģ": 2794,
      "ĥåľ": 2795,
      "æľīäºº": 2796,
      "ä¿Ĺ": 2797,
      "å¢¨": 2798,
      "ç´«": 2799,
      "åħ«åŃĹ": 2800,
      "æģ¢å¤į": 2801,
      "æĬ¥éģĵ": 2802,
      "éĢĲæ¸Ĳ": 2803,
      "åĲ¨": 2804,
      "çĵ¦": 2805,
      "çĪ¶æ¯į": 2806,
      "çĻ£": 2807,
      "éĤ£äºĽ": 2808,
      "åĭ¤": 2809,
      "å®ĥä»¬": 2810,
      "æľīäºĨ": 2811,
      "è¯¸": 2812,
      "æľ¬æ¬¡": 2813,
      "çĶŁéķ¿": 2814,
      "åĨħçļĦ": 2815,
      "æĢ»ä¹¦è®°": 2816,
      "åŀĥåľ": 2817,
      "åŀĥåľ¾": 2818,
      "«çĹ": 2819,
      "æĪĲåĳĺ": 2820,
      "è¿Ļåı¥è¯Ŀ": 2821,
      "ä½ĵçİ°": 2822,
      "äº§åĵģçļĦ": 2823,
      "ä¸įåĪ°": 2824,
      "æķ¢": 2825,
      "éģµ": 2826,
      "2017": 2827,
      "æµĭè¯ķ": 2828,
      "å²¸": 2829,
      "ä¹Łåı¯ä»¥": 2830,
      "å®ŀåĬĽ": 2831,
      "å¼Ł": 2832,
      "æ·»": 2833,
      "è£ģ": 2834,
      "åĲ¸æĶ¶": 2835,
      "ä¸įè¶³": 2836,
      "ä¸ºä»Ģä¹Ī": 2837,
      "éķľ": 2838,
      "äººå£«": 2839,
      "å¯¦": 2840,
      "ç¬¬åĽĽ": 2841,
      "åıªèĥ½": 2842,
      "ç»´çĶŁç´ł": 2843,
      "äº¦": 2844,
      "ä¼¦": 2845,
      "æĽ´å¥½": 2846,
      "æ¬²": 2847,
      "æĳ©": 2848,
      "è´¢æĶ¿": 2849,
      "æĪĲäºĨ": 2850,
      "æĢ§åĴĮ": 2851,
      "çĻ«çĹ": 2852,
      "åĲĮåŃ¦": 2853,
      "ç²ĺ": 2854,
      "æīĭæľ¯": 2855,
      "åİ»å¹´": 2856,
      "æ¹¾": 2857,
      "è®²è¯Ŀ": 2858,
      "æī©å¤§": 2859,
      "çĻ«çĹ«": 2860,
      "åºĦ": 2861,
      "å¤§åŀĭ": 2862,
      "æĭŁ": 2863,
      "æĥ³è¦ģ": 2864,
      "æ¼«": 2865,
      "éī´": 2866,
      "Â°": 2867,
      "å¤ªéĺ³": 2868,
      "æ´Ľ": 2869,
      "è£Ĥ": 2870,
      "æŀĦå»º": 2871,
      "è´¹çĶ¨": 2872,
      "åįĩçº§": 2873,
      "è½¯ä»¶": 2874,
      "ä¸Ģä½ĵ": 2875,
      "å±ı": 2876,
      "æ½ľ": 2877,
      "çļĦäº§åĵģ": 2878,
      "å¼ĥ": 2879,
      "å°ĺ": 2880,
      "åĴ¨": 2881,
      "æµ®": 2882,
      "æ®ĭ": 2883,
      "è§Ĥä¼Ĺ": 2884,
      "å¤įæĿĤ": 2885,
      "çıł": 2886,
      "è®Ńç»ĥ": 2887,
      "ä¸ĸçºª": 2888,
      "è«": 2889,
      "ä¼Ļ": 2890,
      "ç»Łè®¡": 2891,
      "è¿Ľè¡ĮäºĨ": 2892,
      "èĦı": 2893,
      "æ¢ħ": 2894,
      "çīĽçļ®": 2895,
      "ä¸´åºĬ": 2896,
      "æ¯ıä¸ª": 2897,
      "çĳŀ": 2898,
      "æĥĬ": 2899,
      "æł·çļĦ": 2900,
      "èµĽåŃ£": 2901,
      "åı¯èĥ½ä¼ļ": 2902,
      "åĿļå®ļ": 2903,
      "å¹´è½»": 2904,
      "æĭľ": 2905,
      "æľĢå¤§çļĦ": 2906,
      "æ·±åĪ»": 2907,
      "åĲ«æľī": 2908,
      "å±ħæ°ĳ": 2909,
      "æĮĳæĪĺ": 2910,
      "èĲ¨": 2911,
      "åĬ¨åĬĽ": 2912,
      "èªª": 2913,
      "æĿ°": 2914,
      "å±ĳ": 2915,
      "æĽ¿": 2916,
      "è°·": 2917,
      "åĪ©äºİ": 2918,
      "è¿ĲçĶ¨": 2919,
      "ä¼Łå¤§": 2920,
      "åĩºçĶŁ": 2921,
      "å±ķç¤º": 2922,
      "éĽķ": 2923,
      "çĽ¸æ¯Ķ": 2924,
      "è¾ĳ": 2925,
      "è¯´è¿ĩ": 2926,
      "éĺŁä¼į": 2927,
      "åŃ©åŃĲä»¬": 2928,
      "çªģçł´": 2929,
      "ä»įçĦ¶": 2930,
      "åľ£": 2931,
      "ä¹ĺ": 2932,
      "ä¸ĭçļĦ": 2933,
      "å·ŀå¸Ĥ": 2934,
      "ä¸¹": 2935,
      "äºĭä»¶": 2936,
      "ç´łè´¨": 2937,
      "å¼ķå¯¼": 2938,
      "èī¯å¥½": 2939,
      "è¿ŀç»Ń": 2940,
      "çī¹åĪ«æĺ¯": 2941,
      "ä¸ĢåĪĩ": 2942,
      "å¸¸è§ģ": 2943,
      "çªģåĩº": 2944,
      "27": 2945,
      "æ»¤": 2946,
      "èİ«": 2947,
      "çļĦå½±åĵį": 2948,
      "å®ĭ": 2949,
      "ä¼ĺåĮĸ": 2950,
      "åĪĽä½ľ": 2951,
      "ä¹Į": 2952,
      "åĴ¨è¯¢": 2953,
      "ä¸¾åĬŀ": 2954,
      "90": 2955,
      "æ§": 2956,
      "ä¹ı": 2957,
      "æİ¢ç´¢": 2958,
      "é¥Ń": 2959,
      "èĭĹ": 2960,
      "çīĽçļ®çĻ£": 2961,
      "æĺ¯ä»Ģä¹Ī": 2962,
      "å¤§ä¼ļ": 2963,
      "å§ĵ": 2964,
      "æ¬§æ´²": 2965,
      "åĩŃ": 2966,
      "åħ¬å¼Ģ": 2967,
      "è°ĭ": 2968,
      "çĽĳç®¡": 2969,
      "æ±¡æ°´": 2970,
      "ä½ĵéªĮ": 2971,
      "é©¾": 2972,
      "æµĻæ±Ł": 2973,
      "è¯´æĺİ": 2974,
      "è´Ńä¹°": 2975,
      "åħ§": 2976,
      "ç¬¬åįģ": 2977,
      "æĺĮ": 2978,
      "ä¸Ńå°ı": 2979,
      "éĢĤåºĶ": 2980,
      "è´Łè´£äºº": 2981,
      "çº¤": 2982,
      "æĸĩä»¶": 2983,
      "èħº": 2984,
      "è¿¹": 2985,
      "åĲĪåĲĮ": 2986,
      "åĮĸå·¥": 2987,
      "å¡«": 2988,
      "è¿½æ±Ĥ": 2989,
      "æľĹ": 2990,
      "ä¸Ģå¹´": 2991,
      "ä¸Ĭå¸Ĥ": 2992,
      "èĦī": 2993,
      "ä¼Ĭ": 2994,
      "æĸĩåŃ¦": 2995,
      "ä¸īä¸ª": 2996,
      "å¤Ħäºİ": 2997,
      "ä¼łæĴŃ": 2998,
      "ç§°ä¸º": 2999,
      "çŃīçŃī": 3000,
      "åĨħéĥ¨": 3001,
      "ç»ĵæĿŁ": 3002,
      "ç§»åĬ¨": 3003,
      "æľºåĻ¨": 3004,
      "èĢĮè¨Ģ": 3005,
      "éĸĭ": 3006,
      "å°¤åħ¶æĺ¯": 3007,
      "er": 3008,
      "æľīçĿĢ": 3009,
      "çģ°": 3010,
      "çĶ¨çļĦ": 3011,
      "çľŁçļĦ": 3012,
      "åĺī": 3013,
      "éĿ¢çļĦ": 3014,
      "æ´ŀ": 3015,
      "æ©Ł": 3016,
      "åĪ¸": 3017,
      "æ±Łèĭı": 3018,
      "ç»ıåİĨ": 3019,
      "çĮª": 3020,
      "èĢħçļĦ": 3021,
      "æĢĿèĢĥ": 3022,
      "æ£ĢéªĮ": 3023,
      "æĴĳ": 3024,
      "èĳ£äºĭ": 3025,
      "æĦĪ": 3026,
      "éĩıçļĦ": 3027,
      "æĶ¯ä»ĺ": 3028,
      "è¿ħéĢŁ": 3029,
      "ä¸ŃåĽ½çī¹èī²ç¤¾ä¼ļä¸»ä¹ī": 3030,
      "éĥĳ": 3031,
      "èµı": 3032,
      "æ¬¢è¿İ": 3033,
      "çİ°å®ŀ": 3034,
      "å¹³åĿĩ": 3035,
      "é«ĺéĢŁ": 3036,
      "æĻ¶": 3037,
      "åĳĬè¯ī": 3038,
      "500": 3039,
      "å£®": 3040,
      "è§Ĵåº¦": 3041,
      "å±ķå¼Ģ": 3042,
      "çĶ¢": 3043,
      "æĭĶ": 3044,
      "ä½¿åĳ½": 3045,
      "èģĶèµĽ": 3046,
      "çĵ·": 3047,
      "äº§æĿĥ": 3048,
      "é¡¿": 3049,
      "åĪĢ": 3050,
      "å¦»": 3051,
      "åģ¿": 3052,
      "åıĬåħ¶": 3053,
      "è½¦è¾Ĩ": 3054,
      "è¯Ħä»·": 3055,
      "èĭ±åĽ½": 3056,
      "æĬ½": 3057,
      "çļĦæĹ¶éĹ´": 3058,
      "åĲĽ": 3059,
      "åĿĢ": 3060,
      "éľĩ": 3061,
      "é£İæł¼": 3062,
      "æī¿æĭħ": 3063,
      "å¯º": 3064,
      "æľ¬èº«": 3065,
      "æĥħç»ª": 3066,
      "çķ¶": 3067,
      "å½ĵåīį": 3068,
      "æĿĨ": 3069,
      "æ¦ľ": 3070,
      "äºĭæĥħ": 3071,
      "é¢ĨåħĪ": 3072,
      "å°ĳå¹´": 3073,
      "88": 3074,
      "éģŃ": 3075,
      "ä¸»å¸Ń": 3076,
      "æ¨ª": 3077,
      "çıį": 3078,
      "åĢ¼å¾Ĺ": 3079,
      "æĬĳ": 3080,
      "éĻ¶": 3081,
      "æıı": 3082,
      "æİ¥è§¦": 3083,
      "åİŁæĸĻ": 3084,
      "çĩ¥": 3085,
      "è¿ĺè¦ģ": 3086,
      "å¿Ĩ": 3087,
      "ä¸»åĬ¨": 3088,
      "æĽ¼": 3089,
      "åĬ¨çī©": 3090,
      "ç²®": 3091,
      "éĶĪ": 3092,
      "ä¸°å¯ĮçļĦ": 3093,
      "å°±åı¯ä»¥": 3094,
      "è·³": 3095,
      "çĭ¬ç«ĭ": 3096,
      "è´Ŀ": 3097,
      "åĲĦåľ°": 3098,
      "åľ°äº§": 3099,
      "åħĪçĶŁ": 3100,
      "ç»ĻäºĪ": 3101,
      "æħİ": 3102,
      "ç»ıçĲĨ": 3103,
      "æİ¨å¹¿": 3104,
      "è±ª": 3105,
      "å®Ŀå®Ŀ": 3106,
      "å¥ī": 3107,
      "çĲĨæĥ³": 3108,
      "èī²çļĦ": 3109,
      "æ²³åįĹ": 3110,
      "éħĴåºĹ": 3111,
      "æłı": 3112,
      "èµŀ": 3113,
      "çļĦåŁºç¡Ģ": 3114,
      "éĺħ": 3115,
      "ç¾Ĭ": 3116,
      "è¿ĳå¹´æĿ¥": 3117,
      "èģĮå·¥": 3118,
      "èĤ¯å®ļ": 3119,
      "æĹ¦": 3120,
      "æ°¨": 3121,
      "è½¨": 3122,
      "ç¢į": 3123,
      "ç«¹": 3124,
      "æīĭæ®µ": 3125,
      "è¯ķéªĮ": 3126,
      "å¾ªçİ¯": 3127,
      "29": 3128,
      "éĸĵ": 3129,
      "å¤§åĬĽ": 3130,
      "çļĦæ²»çĸĹ": 3131,
      "åĽ½æľī": 3132,
      "ç±į": 3133,
      "èįĲ": 3134,
      "ç±»åŀĭ": 3135,
      "åħįçĸ«": 3136,
      "éĩĮçļĦ": 3137,
      "èĦ¸": 3138,
      "åĸ·": 3139,
      "35": 3140,
      "æľºçļĦ": 3141,
      "æĩĤ": 3142,
      "åŃ¦æľ¯": 3143,
      "è¿Ļæ¬¡": 3144,
      "åħ¨ä½ĵ": 3145,
      "èĩªæĪĳ": 3146,
      "åħ¬å®ī": 3147,
      "æ·±åĮĸ": 3148,
      "åį±å®³": 3149,
      "èĽĭçĻ½": 3150,
      "âĢĿâĢľ": 3151,
      "åĿ¦": 3152,
      "å¼ºçļĦ": 3153,
      "èĻ«": 3154,
      "æĢĿç»´": 3155,
      "éĢ²": 3156,
      "æĻĵ": 3157,
      "è®¤è¯ģ": 3158,
      "æļĤ": 3159,
      "æĪĲåĪĨ": 3160,
      "äºĭæķħ": 3161,
      "èĤ¡ä»½": 3162,
      "å²Ĺä½į": 3163,
      ",ãĢĬ": 3164,
      "åĩºçīĪ": 3165,
      "åľ°ä½į": 3166,
      "åĪ©çĽĬ": 3167,
      "èħĶ": 3168,
      "æī¾åĪ°": 3169,
      "å¦Īå¦Ī": 3170,
      "æĹ¨": 3171,
      "æĪĲçĨŁ": 3172,
      "æĭ¼": 3173,
      "å£ģ": 3174,
      "è®©äºº": 3175,
      "æĺ¯æĮĩ": 3176,
      "çĦ¡": 3177,
      "è¡ĮçļĦ": 3178,
      "èĩªä¸»": 3179,
      "é¡ºåĪ©": 3180,
      "è¿«": 3181,
      "æŃ¦æ±ī": 3182,
      "æĪĴ": 3183,
      "çĽ¸åºĶ": 3184,
      "2016": 3185,
      "ä¼¼ä¹İ": 3186,
      "ä¸įèī¯": 3187,
      "ä¸»æĮģ": 3188,
      "äºĭå®ŀ": 3189,
      "åħ±äº§åħļ": 3190,
      "éĥ¨ç½²": 3191,
      "æ¯ıä¸Ģ": 3192,
      "è¯ģæĺİ": 3193,
      "åĭĴ": 3194,
      "ä»¤äºº": 3195,
      "æį·": 3196,
      "åħ¬åı¸çļĦ": 3197,
      "ä¸ĵä¸ļçļĦ": 3198,
      "çģŃ": 3199,
      "çĲĥåĳĺ": 3200,
      "é©¶": 3201,
      "å±¥": 3202,
      "åıĳçĶµ": 3203,
      "æ³Į": 3204,
      "éħįåĲĪ": 3205,
      "éļĨ": 3206,
      "çĻ½æĸĳ": 3207,
      "çĭĹ": 3208,
      "æļĹ": 3209,
      "çĵ¶": 3210,
      "on": 3211,
      "é¬": 3212,
      "åĽ½åĬ¡": 3213,
      "å®ĺæĸ¹": 3214,
      "èĪªç©º": 3215,
      "æ¶Īæģ¯": 3216,
      "è¿Ļä¸ªéĹ®é¢ĺ": 3217,
      "åĵ¥": 3218,
      "ä¹ĭéĹ´çļĦ": 3219,
      "éĹľ": 3220,
      "æ¸ł": 3221,
      "çĶµæ±ł": 3222,
      "çĽ¸å½ĵ": 3223,
      "æĳĨ": 3224,
      "åĨłåĨĽ": 3225,
      "çļĦå¿ĥ": 3226,
      "ç¨®": 3227,
      "å¾Īå¤§": 3228,
      "åħĥç´ł": 3229,
      "è¡Ģç®¡": 3230,
      "å©´": 3231,
      "æ´»æĢ§": 3232,
      "æ³Ħ": 3233,
      "å®¶éķ¿": 3234,
      "éĿ¢ä¸´": 3235,
      "èģĺ": 3236,
      "çĹħæ¯Ĵ": 3237,
      "åį³ä½¿": 3238,
      "åĩī": 3239,
      "å¦Ĥä»Ĭ": 3240,
      "åįıè°ĥ": 3241,
      "è¯Ńè¨Ģ": 3242,
      "å¡ĳæĸĻ": 3243,
      "==": 3244,
      "çļĦçĶŁæ´»": 3245,
      "æĭĴ": 3246,
      "åĪĨåŃĲ": 3247,
      "åĭĻ": 3248,
      "åįļå£«": 3249,
      "èħĲèļĢ": 3250,
      "ä¼¯": 3251,
      "æ³ī": 3252,
      "å®ŀè¡Į": 3253,
      "éĢļçŁ¥": 3254,
      "æŁ±": 3255,
      "é©±": 3256,
      "å®ı": 3257,
      "å¤§å¤§": 3258,
      "åıĺå¾Ĺ": 3259,
      "åħĪåĲİ": 3260,
      "æĩī": 3261,
      "æĽ´å¤ļçļĦ": 3262,
      "é¼ĵåĬ±": 3263,
      "æĹĭ": 3264,
      "éĻ·": 3265,
      "å¤©çĦ¶": 3266,
      "èŀº": 3267,
      "è¡°": 3268,
      "æĪĲéĥ½": 3269,
      "æĶ¹éĢł": 3270,
      "æİĴæĶ¾": 3271,
      "äº«åıĹ": 3272,
      "å¹³æĸ¹ç±³": 3273,
      "éĩįæĸ°": 3274,
      "çķħ": 3275,
      "è£ħé¥°": 3276,
      "åľŁåľ°": 3277,
      "å°¾": 3278,
      "è¾°": 3279,
      "è¯Ħä¼°": 3280,
      "åĲ¸å¼ķ": 3281,
      "èĶ¬": 3282,
      "åĨ³çŃĸ": 3283,
      "ç»ĺ": 3284,
      "ä¸Ĭè¿°": 3285,
      "ä¸Ģä¸ªäºº": 3286,
      "åĽ´ç»ķ": 3287,
      "éģĵå¾·": 3288,
      "å¹¿å·ŀ": 3289,
      "å®ŀéªĮå®¤": 3290,
      "è®¾ç½®": 3291,
      "åĽ¢ç»ĵ": 3292,
      "éĤĦ": 3293,
      "çļĦåľ°æĸ¹": 3294,
      "èħ¾": 3295,
      "è¶ĭåĬ¿": 3296,
      "å¤ļæ¬¡": 3297,
      "è½´": 3298,
      "å®¿": 3299,
      "åıĳçĹħ": 3300,
      "æľĢå¤§": 3301,
      "çļĦä¼ģä¸ļ": 3302,
      "äººå¤§": 3303,
      "äººåı£": 3304,
      "ç§¦": 3305,
      "èĤ¾": 3306,
      "åĬłå¤§": 3307,
      "æ°ĳä¸»": 3308,
      "è½¬åŀĭ": 3309,
      "åİĤå®¶": 3310,
      "æĪ´": 3311,
      "é¢Ĺ": 3312,
      "åº¦çļĦ": 3313,
      "ç¤ºèĮĥ": 3314,
      "è®°å½ķ": 3315,
      "åĨ³èµĽ": 3316,
      "èĩªæ²»": 3317,
      "æŁĶ": 3318,
      "éº¦": 3319,
      "ä¸Ĭåįĩ": 3320,
      "å¤ļå°ĳ": 3321,
      "çŁ¥åĲį": 3322,
      "èĬĤèĥ½": 3323,
      "æĶ¯æĴĳ": 3324,
      "å¼ķé¢Ĩ": 3325,
      "å¸ĥå±Ģ": 3326,
      "æ¶ĤæĸĻ": 3327,
      "å¿ł": 3328,
      "çĸĨ": 3329,
      "æľĢé«ĺ": 3330,
      "æģĭ": 3331,
      "æł¡åĽŃ": 3332,
      "æŀĦæĪĲ": 3333,
      "åĽ½åĬ¡éĻ¢": 3334,
      "å¿½": 3335,
      "åŃ¦ä¼ļ": 3336,
      "å±ķçİ°": 3337,
      "ä¸»ä½ĵ": 3338,
      "åķĨåĬ¡": 3339,
      "å°ĩ": 3340,
      "è¾ī": 3341,
      "åħ¬è·¯": 3342,
      "çĦĬ": 3343,
      "ç¾İçļĦ": 3344,
      "åĲ«éĩı": 3345,
      "å®ª": 3346,
      "æľºåľº": 3347,
      "æĸ¹éĿ¢çļĦ": 3348,
      "çĵľ": 3349,
      "ãĢĤ(": 3350,
      "âĢĻ": 3351,
      "å»ī": 3352,
      "çĽ¸äºĴ": 3353,
      "2015": 3354,
      "ä¼ı": 3355,
      "äººçī©": 3356,
      "æĮĤ": 3357,
      "çĤŃ": 3358,
      "éĩįåºĨ": 3359,
      "åĳ¼åĲ¸": 3360,
      "æĸ°åŀĭ": 3361,
      "ä¸»è¦ģæĺ¯": 3362,
      "çĬ¶åĨµ": 3363,
      "çĽĳæµĭ": 3364,
      "å¹´åº¦": 3365,
      "é«ĺçŃī": 3366,
      "èī°": 3367,
      "ç¾İä¸½": 3368,
      "åĩĨç¡®": 3369,
      "æ³µ": 3370,
      "é¢ľèī²": 3371,
      "èķ": 3372,
      "åı¬å¼Ģ": 3373,
      "è¿Ļä¹Ī": 3374,
      "æ¯Ķä¾ĭ": 3375,
      "æľĢå¥½": 3376,
      "èı²": 3377,
      "æİĴåĲį": 3378,
      "è¿Ķ": 3379,
      "æĦŁåĪ°": 3380,
      "å¹¿åĳĬ": 3381,
      "ç½Ĺæĸ¯": 3382,
      "éŀ": 3383,
      "çļĦåĲĮæĹ¶": 3384,
      "å¤ļå¹´": 3385,
      "è¿ĽæŃ¥": 3386,
      "æ³ķéĻ¢": 3387,
      "æ³ķè§Ħ": 3388,
      "åŁºå±Ĥ": 3389,
      "èİ±": 3390,
      "ç£ģ": 3391,
      "å°º": 3392,
      "æĽ´æĺ¯": 3393,
      "æ²ŁéĢļ": 3394,
      "ä¼ļæľī": 3395,
      "ä¼ļä¸Ĭ": 3396,
      "å¿ĥçļĦ": 3397,
      "æ¸ħæ´ģ": 3398,
      "en": 3399,
      "é¢Ī": 3400,
      "é«ĺæķĪ": 3401,
      "ä¹ĭå¤ĸ": 3402,
      "ãĢĭãĢĬ": 3403,
      "èŀįèµĦ": 3404,
      "è¹": 3405,
      "ä¸įå¥½": 3406,
      "åĿĽ": 3407,
      "çłĤ": 3408,
      "ä¸ĵåĪ©": 3409,
      "æİ¨èįĲ": 3410,
      "æĢģåº¦": 3411,
      "æıĲä¾ĽäºĨ": 3412,
      "è¯¦ç»Ĩ": 3413,
      "è¦ĨçĽĸ": 3414,
      "ä¸Ģæĺ¯": 3415,
      "åĵģç§į": 3416,
      "èĲĦ": 3417,
      "æĢ»ç»ĵ": 3418,
      "çİ¯èĬĤ": 3419,
      "æ¯ıå¹´": 3420,
      "åįıè®®": 3421,
      "åŃĲå®«": 3422,
      "çĪ±æĥħ": 3423,
      "èĳ¡": 3424,
      "å¾Īå¤ļäºº": 3425,
      "éĢĲæŃ¥": 3426,
      "è´·æ¬¾": 3427,
      "æ±Ĺ": 3428,
      "éĽ»": 3429,
      "ç¡ħ": 3430,
      "ç¢İ": 3431,
      "æ´ª": 3432,
      "2000": 3433,
      "çĭ¬çī¹": 3434,
      "ä¼¸": 3435,
      "æī£": 3436,
      "æµĭéĩı": 3437,
      "æ¹ĸåįĹ": 3438,
      "çļĦå¥½": 3439,
      "ä¸ĢçĤ¹": 3440,
      "æĬ¢": 3441,
      "çĶŁæ´»ä¸Ń": 3442,
      "çĪ¶äº²": 3443,
      "45": 3444,
      "æĪĲå°±": 3445,
      "éªĹ": 3446,
      "èĻİ": 3447,
      "å¾·åĽ½": 3448,
      "å¹´é¾Ħ": 3449,
      "ç¾½": 3450,
      "éĻ¢æł¡": 3451,
      "éĤ®": 3452,
      "éĵģè·¯": 3453,
      "ä¹łè¿ĳå¹³æĢ»ä¹¦è®°": 3454,
      "éģ¸": 3455,
      "æľ¬ç§ĳ": 3456,
      "è¡¨è¾¾": 3457,
      "æ³¨éĩį": 3458,
      "åĽĽå·Ŀ": 3459,
      "éĻĲåĪ¶": 3460,
      "èĳĹåĲį": 3461,
      "å¹´ä»£": 3462,
      "éĹ²": 3463,
      "çľł": 3464,
      "åĪĨæ³Į": 3465,
      "æĸ°æĬĢæľ¯": 3466,
      "ä¸ŃåĽ½çļĦ": 3467,
      "åĬŀçĲĨ": 3468,
      "éħįå¥Ĺ": 3469,
      "å¯¿åĳ½": 3470,
      "å¤§éĥ¨åĪĨ": 3471,
      "å¹³è¡¡": 3472,
      "åģļåĩº": 3473,
      "å¼ķåıĳ": 3474,
      "è²Į": 3475,
      "çĶľ": 3476,
      "è¾£": 3477,
      "åĢ¾": 3478,
      "æľŁçļĦ": 3479,
      "éĺ²æİ§": 3480,
      "é£ŁçĶ¨": 3481,
      "æĶ¾åľ¨": 3482,
      "ä½ľåĩº": 3483,
      "å·¥åħ·": 3484,
      "çº¹": 3485,
      "åŃĲçļĦ": 3486,
      "å®¾": 3487,
      "éĢĴ": 3488,
      "åľºæīĢ": 3489,
      "ç¡ķ": 3490,
      "äººçĶŁ": 3491,
      "æµģç¨ĭ": 3492,
      "æĺ¾èĳĹ": 3493,
      "åĶ¯ä¸Ģ": 3494,
      "èĳ¡èĲĦ": 3495,
      "åĬ²": 3496,
      "ä»£çĲĨ": 3497,
      "èĲ¥éĶĢ": 3498,
      "çĻ¾å¹´": 3499,
      "çº¤ç»´": 3500,
      "çį": 3501,
      "è¡¨æĺİ": 3502,
      "æłĩå¿Ĺ": 3503,
      "æī¹åĩĨ": 3504,
      "èĥĮæĻ¯": 3505,
      "éĶģ": 3506,
      "åĲĦä¸ª": 3507,
      "âĢĺ": 3508,
      "èĥĨ": 3509,
      "å¤§å¤ļæķ°": 3510,
      "èĥ¸": 3511,
      "çģĮ": 3512,
      "å¦Ĥæŀľä½ł": 3513,
      "çº¢èī²": 3514,
      "å¿ĹæĦ¿": 3515,
      "åį±éĻ©": 3516,
      "è·Ŀç¦»": 3517,
      "æ²Ĵ": 3518,
      "å»ºæĪĲ": 3519,
      "çĹħäºº": 3520,
      "æķĪçĽĬ": 3521,
      "å«Į": 3522,
      "çļĦè¦ģæ±Ĥ": 3523,
      "é«ĺæ¸©": 3524,
      "çĸ¼": 3525,
      "æĢ»æĺ¯": 3526,
      "ä½©": 3527,
      "æĿľ": 3528,
      "åĲĬ": 3529,
      "åĨĴ": 3530,
      "æĬ±": 3531,
      "åĹ": 3532,
      "é³": 3533,
      "èµĸ": 3534,
      "è¦ģæ³¨æĦı": 3535,
      "ä¼ļè®¡": 3536,
      "è¿Ľåı£": 3537,
      "åĲĮæł·": 3538,
      "å¨±ä¹Ĳ": 3539,
      "ä¸Ńåįİæ°ĳæĹı": 3540,
      "äºķ": 3541,
      "æľĪä»½": 3542,
      "åĽºå®ļ": 3543,
      "çĻ»è®°": 3544,
      "è°±": 3545,
      "æ¡ĥ": 3546,
      "çĶ·æĢ§": 3547,
      "çļĦäºĭæĥħ": 3548,
      "çļĦæĸ¹æ³ķ": 3549,
      "ä»ĸäºº": 3550,
      "ãĢĭãĢĤ": 3551,
      "è·ĥ": 3552,
      "éļ¾ä»¥": 3553,
      "ä¼Ĺå¤ļ": 3554,
      "éģĩåĪ°": 3555,
      "ä½łä»¬": 3556,
      "äºĮæĺ¯": 3557,
      "è¿ŀæİ¥": 3558,
      "åĲ¯åĬ¨": 3559,
      ")(": 3560,
      "åĽĽä¸ª": 3561,
      "åıįæĺł": 3562,
      "èĶ¬èıľ": 3563,
      "31": 3564,
      "36": 3565,
      "59": 3566,
      "åĨ»": 3567,
      "åĬĽåº¦": 3568,
      "çĪ¸": 3569,
      "è½¬åĮĸ": 3570,
      "æª": 3571,
      "ä»ĵ": 3572,
      "è°Ĳ": 3573,
      "ä¸ŃåĽ½åħ±äº§åħļ": 3574,
      "æĺ¯ä¸į": 3575,
      "å¿Ļ": 3576,
      "éĥ½åľ¨": 3577,
      "ç²Ĺ": 3578,
      "ç»´ä¿®": 3579,
      "ç¢±": 3580,
      "åĬŀåħ¬å®¤": 3581,
      "æĨ": 3582,
      "çļĦä¸Ģä¸ª": 3583,
      "åŃ¦ä½į": 3584,
      "åĪ¶åĵģ": 3585,
      "æĦıåĳ³": 3586,
      "åĩłä¸ª": 3587,
      "ä¸¦": 3588,
      "ä¸Ģèĩ´": 3589,
      "åľ¨äºİ": 3590,
      "æ°Ľ": 3591,
      "å¸¦çĿĢ": 3592,
      "å§Ķä¼ļ": 3593,
      "å²©": 3594,
      "é¦ĸæ¬¡": 3595,
      "å®¤åĨħ": 3596,
      "åĵ²": 3597,
      "çĶµåĬ¨": 3598,
      "ä¿¡çĶ¨": 3599,
      "æĢ»ä½ĵ": 3600,
      "èĩ´åĬĽ": 3601,
      "åĪĩå®ŀ": 3602,
      "ä¸¾è¡Į": 3603,
      "å°½ç®¡": 3604,
      "çĪ·": 3605,
      "åįģäºĮ": 3606,
      "çļĦæ°´": 3607,
      "çłĸ": 3608,
      "ä¿Ħç½Ĺæĸ¯": 3609,
      "Ġ(": 3610,
      "åı¯éĿł": 3611,
      "ä¸ĭéĿ¢": 3612,
      "çĤī": 3613,
      "é©»": 3614,
      "æĬĬæı¡": 3615,
      "çŁ¥è¯Ĩäº§æĿĥ": 3616,
      "è®¾ç«ĭ": 3617,
      "èº«ä»½": 3618,
      "åħħæ»¡": 3619,
      "å¤§åĪ©": 3620,
      "éħ¯": 3621,
      "æĦŁæĥħ": 3622,
      "åŁ¹èĤ²": 3623,
      "ä¾Ŀæį®": 3624,
      "å°½éĩı": 3625,
      "çļĦæĬĢæľ¯": 3626,
      "è¯±": 3627,
      "èµ·åĪ°": 3628,
      "åĪ«äºº": 3629,
      "äººæ°ĳå¸ģ": 3630,
      "éĵ¶å±ĳ": 3631,
      "å¾ŀ": 3632,
      "æīĢè°ĵ": 3633,
      "æĸĩç«ł": 3634,
      "å£¤": 3635,
      "çľŁå®ŀ": 3636,
      "å¸ĤåľºçļĦ": 3637,
      "æ¡Īä»¶": 3638,
      "å®£å¸ĥ": 3639,
      "å´ĩ": 3640,
      "è®¡ç®Ĺæľº": 3641,
      "çļĦæĸ¹å¼ı": 3642,
      "å®¶åħ·": 3643,
      "åĲİæĿ¥": 3644,
      "è·Į": 3645,
      "çĶµåĬĽ": 3646,
      "åĿļåĨ³": 3647,
      "æĻ¯åĮº": 3648,
      "æĲ¬": 3649,
      "åģ¶": 3650,
      "æĻĭ": 3651,
      "ä¸īå¹´": 3652,
      "è£ħå¤ĩ": 3653,
      "å¹²çĩ¥": 3654,
      "åĩłä¹İ": 3655,
      "åį³åı¯": 3656,
      "åħ´è¶£": 3657,
      "è¯ļä¿¡": 3658,
      "éĵ¶å±ĳçĹħ": 3659,
      "åľ¨ä¸Ģèµ·": 3660,
      "èµ¶": 3661,
      "æ±ģ": 3662,
      "æĸ°èĥ½æºĲ": 3663,
      "éĥģ": 3664,
      "éĥ½ä¸į": 3665,
      "ç¼´": 3666,
      "è¯ģä¹¦": 3667,
      "éĤĢ": 3668,
      "å°±èĥ½": 3669,
      "å§Ĳ": 3670,
      "ç¾İæľ¯": 3671,
      "åİŁçĲĨ": 3672,
      "èĩ³ä»Ĭ": 3673,
      "æ¼ı": 3674,
      "åĳĪçİ°": 3675,
      "æ¸łéģĵ": 3676,
      "éĢĥ": 3677,
      "åıĳä½ľ": 3678,
      "åĲĪæł¼": 3679,
      "äºĭé¡¹": 3680,
      "æ»´": 3681,
      "æĤ£èĢħçļĦ": 3682,
      "è¿Ī": 3683,
      "è¢ĭ": 3684,
      "åįĵ": 3685,
      "åĵ¡": 3686,
      "äºİæĺ¯": 3687,
      "ä¹Łå°±æĺ¯": 3688,
      "çļĦä¸Ģç§į": 3689,
      "éŃĶ": 3690,
      "300": 3691,
      "ä¸Ģå®¶": 3692,
      "å¯¹å¤ĸ": 3693,
      "æĵ¦": 3694,
      "ä¹¡æĿĳ": 3695,
      "ä»ªåĻ¨": 3696,
      "çļĦä¸į": 3697,
      "åľ¨çº¿": 3698,
      "æķĮ": 3699,
      "è°ĥèĬĤ": 3700,
      "é©¬åħĭ": 3701,
      "åŃķå¦ĩ": 3702,
      "åħ¬å¸ĥ": 3703,
      "äººå·¥": 3704,
      "æ¸Ĺ": 3705,
      "æ¼Ĩ": 3706,
      "è¿Ŀæ³ķ": 3707,
      "ç¸": 3708,
      "åıĳè¡¨": 3709,
      "èĤĥ": 3710,
      "åĲĪéĩĳ": 3711,
      "æĻ¨": 3712,
      "ä½¿å¾Ĺ": 3713,
      "æŃ£æĺ¯": 3714,
      "æ°¢": 3715,
      "çĤ¸": 3716,
      "å®Įæķ´": 3717,
      "æ¸ħæ¥ļ": 3718,
      "æ²³åĮĹ": 3719,
      "ä»¿": 3720,
      "æľīåĪ©äºİ": 3721,
      "å¾½": 3722,
      "èĤª": 3723,
      "æģĲ": 3724,
      "è£ħç½®": 3725,
      "è³ª": 3726,
      "èĦĤèĤª": 3727,
      "ä¸ĢæĹ¦": 3728,
      "å¿Į": 3729,
      "è¾½": 3730,
      "æ¬£": 3731,
      "çī¹å¾ģ": 3732,
      "æ»¨": 3733,
      "å¿«ä¹Ĳ": 3734,
      "èĩŃ": 3735,
      "éĵ¸": 3736,
      "åįĹäº¬": 3737,
      "åĽŀåºĶ": 3738,
      "é¼»": 3739,
      "é«ĺè´¨éĩıåıĳå±ķ": 3740,
      "?âĢĿ": 3741,
      "åĮĢ": 3742,
      "ä¸įåĨį": 3743,
      "çī©çĲĨ": 3744,
      "éŁ©åĽ½": 3745,
      "ä¸Ģè·¯": 3746,
      "è¾ŀ": 3747,
      "éĺĶ": 3748,
      "é«ĺçº§": 3749,
      "èĩªä¿¡": 3750,
      "éĽ¾": 3751,
      "æ¸ħæ´Ĺ": 3752,
      "é¬¼": 3753,
      "äº©": 3754,
      "åĪĬ": 3755,
      "åĿ¡": 3756,
      "å¼ĺ": 3757,
      "ç§ī": 3758,
      "æĹ¶çļĦ": 3759,
      "æĽ´å¥½çļĦ": 3760,
      "è§Ĥå¯Ł": 3761,
      "èį¯åĵģ": 3762,
      "è¡Įä¸ļçļĦ": 3763,
      "åħįè´¹": 3764,
      "åľ¨æŃ¤": 3765,
      "ä½ľä¸ļ": 3766,
      "ä¹Łèĥ½": 3767,
      "æŃ»äº¡": 3768,
      "è®¨è®º": 3769,
      "èĿ": 3770,
      "èµ·éĩį": 3771,
      "ç¦»å¼Ģ": 3772,
      "æĺ¯æľĢ": 3773,
      "æī«": 3774,
      "åīįçļĦ": 3775,
      "åįģåĽĽ": 3776,
      "æĪ¿åľ°äº§": 3777,
      "æ»¡æĦı": 3778,
      "æ·»åĬł": 3779,
      "æľīåı¯èĥ½": 3780,
      "æĭĨ": 3781,
      "å§Ĩ": 3782,
      "åĲĦçº§": 3783,
      "è¿ĺåı¯ä»¥": 3784,
      "åķĬ": 3785,
      "å¥¹çļĦ": 3786,
      "æ¯įäº²": 3787,
      "1000": 3788,
      "è¿ģ": 3789,
      "æĸ°åĨł": 3790,
      "å¯ĨåĪĩ": 3791,
      "çī©çļĦ": 3792,
      "è¶³çĲĥ": 3793,
      "éĨĩ": 3794,
      "è®ĵ": 3795,
      "çīµ": 3796,
      "éĻķ": 3797,
      "å°±åĥı": 3798,
      "éĶ»": 3799,
      "åĬŁæķĪ": 3800,
      "éĢĤå½ĵ": 3801,
      "ä½ıæĪ¿": 3802,
      "å®ĺç½ĳ": 3803,
      "çļĦæĥħåĨµä¸ĭ": 3804,
      "è»Ĭ": 3805,
      "æľīå¾Īå¤ļ": 3806,
      "éĻ¢éķ¿": 3807,
      "ä¹ĥ": 3808,
      "åľ¨è¿Ļ": 3809,
      "éĢĨ": 3810,
      "æıĲåĪ°": 3811,
      "æīĢåľ¨": 3812,
      "çĥ¯": 3813,
      "åĪ©æ¶¦": 3814,
      "é»ŀ": 3815,
      "æĮĩæłĩ": 3816,
      "åı¯æĺ¯": 3817,
      "ä½ĵåĪ¶": 3818,
      "çĥ¦": 3819,
      "çĽ¸åĲĮ": 3820,
      "ç»ĦåĲĪ": 3821,
      "ç¥ŀç»ı": 3822,
      "åĨ²åĩ»": 3823,
      "å¹»": 3824,
      "å¤©æ´¥": 3825,
      "éĶ¦": 3826,
      "åĲįåŃĹ": 3827,
      "å°ĸ": 3828,
      "ä¸Ńåħ±": 3829,
      "å¾Ĵ": 3830,
      "åĬłä¸Ĭ": 3831,
      "æĽ´ä¸º": 3832,
      "ç¬¬äºĶ": 3833,
      "ä¼łæī¿": 3834,
      "çľģçº§": 3835,
      "èĬĤçĽ®": 3836,
      "é»ĳèī²": 3837,
      "æ©¡": 3838,
      "èĩªæ²»åĮº": 3839,
      "çĤĴ": 3840,
      "çĸı": 3841,
      "æĿŃ": 3842,
      "å°±è¦ģ": 3843,
      "éĥŃ": 3844,
      "198": 3845,
      "çļĦåİŁåĽł": 3846,
      "ä»Ļ": 3847,
      "åľ¨ä¸ŃåĽ½": 3848,
      "ä¸Ĭä¸ĭ": 3849,
      "èĥĢ": 3850,
      "ä¸ĵéĹ¨": 3851,
      "æ·±åº¦": 3852,
      "ä¸ĸçķĮæĿ¯": 3853,
      "!âĢĿ": 3854,
      "å¯¸": 3855,
      "2013": 3856,
      "çļĦçĥŃ": 3857,
      "èµĭ": 3858,
      "å¥ı": 3859,
      "åľŁå£¤": 3860,
      "ç¼ºä¹ı": 3861,
      "æįŁå¤±": 3862,
      "ãĢĤãĢĬ": 3863,
      "äºĨä¸Ģä¸ª": 3864,
      "éĥ¨ä½į": 3865,
      "éĶĮ": 3866,
      "è¨Ń": 3867,
      "æĤŁ": 3868,
      "æĺ¯çĶ±": 3869,
      "åįĢ": 3870,
      "æī°": 3871,
      "çº½": 3872,
      "åŁºåĽł": 3873,
      "æ»ĭ": 3874,
      "å½¢åĬ¿": 3875,
      "è½¬åıĺ": 3876,
      "æĺ¯ä¸ŃåĽ½": 3877,
      "åıĳåĬ¨": 3878,
      "æŀĿ": 3879,
      "å¾Īéļ¾": 3880,
      "åħ±åĴĮ": 3881,
      "æĶ¶çĽĬ": 3882,
      "æĶ¯éĥ¨": 3883,
      "åŁºç¡Ģè®¾æĸ½": 3884,
      "è¡¥åħħ": 3885,
      "æĢĢåŃķ": 3886,
      "åĪĨå¸ĥ": 3887,
      "å¾Īå¤§çļĦ": 3888,
      "èĪį": 3889,
      "èĲ¥ä¸ļ": 3890,
      "æľīåĵªäºĽ": 3891,
      "æĿ¥æºĲ": 3892,
      "æł¼å±Ģ": 3893,
      "éĤ£ä¸ª": 3894,
      "ä¼ĺèī¯": 3895,
      "å¸¦é¢Ĩ": 3896,
      "2014": 3897,
      "æĤ²": 3898,
      "èĥľåĪ©": 3899,
      "åĩĢåĮĸ": 3900,
      "æĪĳåĢĳ": 3901,
      "çĹħä¾ĭ": 3902,
      "è¾ĥä¸º": 3903,
      "è®¤åı¯": 3904,
      "åĤ¬": 3905,
      "æ¹ĸåĮĹ": 3906,
      "ä¸Ģæµģ": 3907,
      "çĶµè¯Ŀ": 3908,
      "æĬ¤çĲĨ": 3909,
      "éĤ¦": 3910,
      "è´¢åĬ¡": 3911,
      "è¸ı": 3912,
      "æ¦Ĥå¿µ": 3913,
      "èĤ¿çĺ¤": 3914,
      "åıĳèĤ²": 3915,
      "èĬ³": 3916,
      "è§Ħå¾ĭ": 3917,
      "æĮĩæķ°": 3918,
      "å¤įåĲĪ": 3919,
      "åºŁæ°´": 3920,
      "æĮĸ": 3921,
      "æľŁå¾ħ": 3922,
      "ä¸ĵé¡¹": 3923,
      "åįģä¹Ŀ": 3924,
      "ç¢ĳ": 3925,
      "é¢Ħè®¡": 3926,
      "çĻ¾åĪĨ": 3927,
      "æĭĴç»Ŀ": 3928,
      "å®ħ": 3929,
      "å¥ĳ": 3930,
      "æµ©": 3931,
      "å¯¹è±¡": 3932,
      "æĸ°åĮº": 3933,
      "æĦŁåıĹ": 3934,
      "ç½ĳåıĭ": 3935,
      "è¡Ģåİĭ": 3936,
      "çĥĪçļĦ": 3937,
      "è³ĩ": 3938,
      "èĢģå¹´äºº": 3939,
      "åīª": 3940,
      "åħ³å¿ĥ": 3941,
      "å¤©çļĦ": 3942,
      "ç¡«": 3943,
      "å¾Īå¥½çļĦ": 3944,
      "èħ¿": 3945,
      "èį£èªī": 3946,
      "å¹¼åĦ¿": 3947,
      "åºĶæĢ¥": 3948,
      "å½ĵä¸Ń": 3949,
      "æĥħåĨµä¸ĭ": 3950,
      "ä¾ĿçĦ¶": 3951,
      "38": 3952,
      "æĥĳ": 3953,
      "å±Ĥæ¬¡": 3954,
      "åħ¬åĽŃ": 3955,
      "è¯´éģĵ": 3956,
      "æĲľ": 3957,
      "çļĦåīį": 3958,
      "çļĦæľįåĬ¡": 3959,
      "ç§Ĵ": 3960,
      "åŃ¦åİĨ": 3961,
      "ä¸įç®¡": 3962,
      "åĽ½å¤ĸ": 3963,
      "åŁĥ": 3964,
      "åħ¨çľģ": 3965,
      "æ°Ķä½ĵ": 3966,
      "æĹ©æľŁ": 3967,
      "æ¿Ģç´ł": 3968,
      "ä¼¤å®³": 3969,
      "ä»ªå¼ı": 3970,
      "æ°¸è¿ľ": 3971,
      "ä¸ĢæĿ¡": 3972,
      "åĩ¤": 3973,
      "æµħ": 3974,
      "åĪ°åºķ": 3975,
      "æľĢä½³": 3976,
      "è¨Ī": 3977,
      "å¤±åİ»": 3978,
      "æĹ©å·²": 3979,
      "å¯¹æĸ¹": 3980,
      "ä¹ĭä¸Ń": 3981,
      "çħ®": 3982,
      "çł´åĿı": 3983,
      "å¼Ĥå¸¸": 3984,
      "åĪ¤æĸŃ": 3985,
      "å°Ŀ": 3986,
      "åĪĨç±»": 3987,
      "æĸ°çĸĨ": 3988,
      "è°¨": 3989,
      "æĦıæĢĿ": 3990,
      "æ¶ĪåĮĸ": 3991,
      "æĪªèĩ³": 3992,
      "ä¿±ä¹Ĳ": 3993,
      "ç«ĭåį³": 3994,
      "è§Ĵèī²": 3995,
      "æĻ®éģį": 3996,
      "çİ©å®¶": 3997,
      "æĢª": 3998,
      "ä¸ĭåįĪ": 3999,
      "å¹¶ä¸įæĺ¯": 4000,
      "ç»ıæµİåıĳå±ķ": 4001,
      "çłĶç©¶çĶŁ": 4002,
      "åħħåĪĨåıĳæĮ¥": 4003,
      "æĮ¯åħ´": 4004,
      "ä¸ĢåĲį": 4005,
      "äººåľ¨": 4006,
      "å¿§": 4007,
      "åºĶå¯¹": 4008,
      "å°Ĩåľ¨": 4009,
      "èī²å½©": 4010,
      "ä¿±ä¹Ĳéĥ¨": 4011,
      "ä¸Ńèį¯": 4012,
      "æ²Ī": 4013,
      "æĦŁè°¢": 4014,
      "åıĤèĢĥ": 4015,
      "åįĬå¹´": 4016,
      "è¯ĬæĸŃ": 4017,
      "--------": 4018,
      "èĩ´åĬĽäºİ": 4019,
      "ç¨Ģ": 4020,
      "å±ķè§Ī": 4021,
      "å°ıç»Ħ": 4022,
      "éĺ³åħī": 4023,
      "æĦıåĳ³çĿĢ": 4024,
      "åĴĮè°Ĳ": 4025,
      "çºµ": 4026,
      "å¤Ħç½ļ": 4027,
      "çĻ½çĻľé£İçļĦ": 4028,
      "____": 4029,
      "ä¸ĬäºĨ": 4030,
      "å½±çīĩ": 4031,
      "ç¬¬ä¸Ģæ¬¡": 4032,
      "çļĦèĥ½åĬĽ": 4033,
      "å·¡": 4034,
      "ç»ıåħ¸": 4035,
      "åħ±äº«": 4036,
      "è£ħä¿®": 4037,
      "è®ºæĸĩ": 4038,
      "éĢĤçĶ¨äºİ": 4039,
      "ä¿¡æģ¯åĮĸ": 4040,
      "æĭĽçĶŁ": 4041,
      "æĭĵå±ķ": 4042,
      "éĶĪéĴ¢": 4043,
      "ç¨¿": 4044,
      "çİ°æľī": 4045,
      "æıĴ": 4046,
      "çĶµåķĨ": 4047,
      "æľĢè¿ĳ": 4048,
      "æĽ´æĸ°": 4049,
      "æĲº": 4050,
      "å©´åĦ¿": 4051,
      "çļĦç²¾ç¥ŀ": 4052,
      "åħ©": 4053,
      "ä¸Ģåı¥": 4054,
      "éĻµ": 4055,
      "å½¹": 4056,
      "åħ¨ä¼ļ": 4057,
      "ç½©": 4058,
      "è¿ĺä¼ļ": 4059,
      "ç±»ä¼¼": 4060,
      "æ¢¨": 4061,
      "æ¶Īéĺ²": 4062,
      "æĭħä»»": 4063,
      "åĩ¯": 4064,
      "å½¼": 4065,
      "éĩįçļĦ": 4066,
      "è®¸åı¯": 4067,
      "éģĭ": 4068,
      "ä¸ĵçĶ¨": 4069,
      "æĪĺäºī": 4070,
      "å¥³äºº": 4071,
      "åĴĮç¤¾ä¼ļ": 4072,
      "åĢ¡": 4073,
      "ç§įæ¤į": 4074,
      "æĸĩèīº": 4075,
      "åı¸æ³ķ": 4076,
      "ä½İäºİ": 4077,
      "åıĸå¾ĹäºĨ": 4078,
      "äºĮåįģå¤§": 4079,
      "é©¬åħĭæĢĿ": 4080,
      "åįģå¹´": 4081,
      "èĻķ": 4082,
      "éħįç½®": 4083,
      "éļıåĲİ": 4084,
      "å·®å¼Ĥ": 4085,
      "äºĳåįĹ": 4086,
      "ï¿": 4087,
      "æĺ¯æľī": 4088,
      "èĢĥçĶŁ": 4089,
      "ç¢°": 4090,
      "çµĲ": 4091,
      "çĽ¾": 4092,
      "å¦Ļ": 4093,
      "éķ¿æĹ¶éĹ´": 4094,
      "æıĲéĨĴ": 4095,
      "èĲ§": 4096,
      "å¾Īå¥½": 4097,
      "ä¸ĩäºº": 4098,
      "åĬŀåŃ¦": 4099,
      "ç´¯è®¡": 4100,
      "æĥľ": 4101,
      "èµĦè´¨": 4102,
      "æŁľ": 4103,
      "çī¹æĢ§": 4104,
      "åį°åĪ·": 4105,
      "èĳ£äºĭéķ¿": 4106,
      "å·¥èµĦ": 4107,
      "åľ°ä¸ĭ": 4108,
      "åĬ¨ä½ľ": 4109,
      "å°ıçļĦ": 4110,
      "ä¿¡å¿ĥ": 4111,
      "å¾®ä¿¡": 4112,
      "éļľç¢į": 4113,
      "åĽĬ": 4114,
      "çī§": 4115,
      "å§ľ": 4116,
      "å¹³æĹ¶": 4117,
      "å·¥ä½ľäººåĳĺ": 4118,
      "å¹¶æ²¡æľī": 4119,
      "ç¼Ŀ": 4120,
      "æĤ¬": 4121,
      "åł´": 4122,
      "åĪĿå¿ĥ": 4123,
      "33": 4124,
      "çļĨ": 4125,
      "ä¸Ĭæ¶¨": 4126,
      "è¾ĸ": 4127,
      "ä¿Ŀåģ¥": 4128,
      "ä¸¤ç§į": 4129,
      "éĩĩè´Ń": 4130,
      "èĴĤ": 4131,
      "è§ĦåĪĻ": 4132,
      "ï¿½": 4133,
      "åħģ": 4134,
      "ä¸įéĶĪéĴ¢": 4135,
      "ä¹Łè¦ģ": 4136,
      "åľºæ¯ĶèµĽ": 4137,
      "çĿĽ": 4138,
      "è§£éĩĬ": 4139,
      "èħ°": 4140,
      "å®īåħ¨çĶŁäº§": 4141,
      "çŁ³æ²¹": 4142,
      "é¢ĨåŁŁçļĦ": 4143,
      "åĲĮæ¯Ķå¢ŀéķ¿": 4144,
      "çºº": 4145,
      "æĹ¶åĪ»": 4146,
      "å®ļä½į": 4147,
      "æĸĩåŃĹ": 4148,
      "èĴĻåı¤": 4149,
      "åĪ¥": 4150,
      "éĻª": 4151,
      "å®ļæľŁ": 4152,
      "å°Ĩä¼ļ": 4153,
      "æ¡Ĥ": 4154,
      "æĴŀ": 4155,
      "é©¾é©¶": 4156,
      "éĥ½èĥ½": 4157,
      "æ°ĳéĹ´": 4158,
      "æ·Ģ": 4159,
      "åĪĽå»º": 4160,
      "è®¾å¤ĩçļĦ": 4161,
      "ä¸Ģä½į": 4162,
      "ä¸Ģæī¹": 4163,
      "çĽĪ": 4164,
      "å¹¿è¥¿": 4165,
      "æľīæķĪçļĦ": 4166,
      "èĸª": 4167,
      "å¦Ĥä¸ĭ": 4168,
      "è¡¨æ¼Ķ": 4169,
      "å¾Īå®¹æĺĵ": 4170,
      "çĿĢåĬĽ": 4171,
      "åĲĦä½į": 4172,
      "è¾ĥå¤§": 4173,
      "é¥±": 4174,
      "èĭ±éĽĦ": 4175,
      "è´¤": 4176,
      "è¯ģåĪ¸": 4177,
      "äººæ°ĳæĶ¿åºľ": 4178,
      "æĸ¤": 4179,
      "æĿ±": 4180,
      "ä½ľèĢħ": 4181,
      "ä¹Łåľ¨": 4182,
      "ä¸»ç®¡": 4183,
      "æıŃ": 4184,
      "é¡µ": 4185,
      "å¤©æ°Ķ": 4186,
      "åĻ¨çļĦ": 4187,
      "ä¸ŃåĮ»èį¯": 4188,
      "æĪĲçļĦ": 4189,
      "åŁĭ": 4190,
      "åī²": 4191,
      "åħ¨å¸Ĥ": 4192,
      "çĥĤ": 4193,
      "åįıåĲĮ": 4194,
      "åĽŃåĮº": 4195,
      "éĻķè¥¿": 4196,
      "çļĦç¾İ": 4197,
      "åĬłçĥŃ": 4198,
      "èģĬ": 4199,
      "åħ¶æ¬¡": 4200,
      "åħļä¸Ńå¤®": 4201,
      "åĳ¨åĽ´": 4202,
      "åºĶçĶ¨äºİ": 4203,
      "éŃĤ": 4204,
      "ç¡ķå£«": 4205,
      "æ°£": 4206,
      "æıĲåīį": 4207,
      "åı¯ä»¥åľ¨": 4208,
      "æŃ£è§Ħ": 4209,
      "ä¼ĺçĤ¹": 4210,
      "åŁİéķĩ": 4211,
      "è®©æĪĳä»¬": 4212,
      "èĢĥæł¸": 4213,
      "èĭ±è¯Ń": 4214,
      "åĪ¶éĢłä¸ļ": 4215,
      "æĺĨ": 4216,
      "è¯ĳ": 4217,
      "æ°¯": 4218,
      "æµ¸": 4219,
      "å®¶çļĦ": 4220,
      "æķ´æĶ¹": 4221,
      "é¢Ħç®Ĺ": 4222,
      "åŃ£åº¦": 4223,
      "æ¤Ĵ": 4224,
      "çº³ç¨İ": 4225,
      "éĭ": 4226,
      "åĩºå¸Ń": 4227,
      "ä¿Ŀæ¸©": 4228,
      "éĵº": 4229,
      "éĺ²æ²»": 4230,
      "åĩłå¹´": 4231,
      "å²ģçļĦ": 4232,
      "éķ¿çļĦ": 4233,
      "æİ¨åĩº": 4234,
      "åĨľæ°ĳ": 4235,
      "ä»¥åīį": 4236,
      "åī©": 4237,
      "çŃīå¥ĸ": 4238,
      "æįĲ": 4239,
      "åħļå»º": 4240,
      "æµģåĬ¨": 4241,
      "å°ĳæķ°": 4242,
      "èĢģäºº": 4243,
      "å¸¦æĿ¥çļĦ": 4244,
      "ç³»ç»ŁçļĦ": 4245,
      "åŃ¦çĶŁçļĦ": 4246,
      "éĻ¶çĵ·": 4247,
      "è¤": 4248,
      "ä¸įéĶĻ": 4249,
      "é«ĺç«¯": 4250,
      "åĬłçĽŁ": 4251,
      "èĢĮä¸į": 4252,
      "2012": 4253,
      "ä¸ĸçķĮä¸Ĭ": 4254,
      "é©±åĬ¨": 4255,
      "è¾Ī": 4256,
      "å®ļçļĦ": 4257,
      "å§»": 4258,
      "èİ·åıĸ": 4259,
      "æ¼Ķåĳĺ": 4260,
      "åİ¨": 4261,
      "ç¨į": 4262,
      "æ¡Ĩ": 4263,
      "è®°å¿Ĩ": 4264,
      "åĭĥ": 4265,
      "çĶŁæ´»çļĦ": 4266,
      "æĲŀ": 4267,
      "é¸Ł": 4268,
      "æ²Ĵæľī": 4269,
      "å·¥åķĨ": 4270,
      "åĬłéĩį": 4271,
      "èĭ¹": 4272,
      "éĺ²çģ«": 4273,
      "äº¿ç¾İåħĥ": 4274,
      "æīĢæľīçļĦ": 4275,
      "å¯»æī¾": 4276,
      "æľīåĬ©": 4277,
      "å¾¡": 4278,
      "æĮ¤": 4279,
      "å¤ļæł·": 4280,
      "å§¿": 4281,
      "çķª": 4282,
      "å¤©ä¸ĭ": 4283,
      "éĴĻ": 4284,
      "åįģä¸ī": 4285,
      "æµ·å¤ĸ": 4286,
      "éĽĨä½ĵ": 4287,
      "æĿ¡ä¾ĭ": 4288,
      "åĽ½åĨħå¤ĸ": 4289,
      "75": 4290,
      "âĹ": 4291,
      "åĲĲ": 4292,
      "åĬĽåĴĮ": 4293,
      "å¾ĹåĪ°äºĨ": 4294,
      "ä¸īåĪĨ": 4295,
      "æ¡¶": 4296,
      "éĺ²æĬ¤": 4297,
      "å¸ĪèĮĥ": 4298,
      "æ¨£": 4299,
      "åĬ©åĬĽ": 4300,
      "æıĲåĩºäºĨ": 4301,
      "åħĦ": 4302,
      "åĩĮ": 4303,
      "ä¿Ĭ": 4304,
      "çĸ²": 4305,
      "æīĵå¼Ģ": 4306,
      "ç»ıæµİç¤¾ä¼ļ": 4307,
      "çªģçĦ¶": 4308,
      "mm": 4309,
      "éķĢ": 4310,
      "å·¥ä½ľä¸Ń": 4311,
      "åĳ½è¿Ĳ": 4312,
      "æĳĩ": 4313,
      "äºļæ´²": 4314,
      "ä¸Ģå¤©": 4315,
      "åŃŁ": 4316,
      "å¸«": 4317,
      "æ³ķåĽ½": 4318,
      "åĮ»å¸Ī": 4319,
      "å½¢æĪĲäºĨ": 4320,
      "å¦ĩå¥³": 4321,
      "ä¸Ģä»£": 4322,
      "å·¥åİĤ": 4323,
      "åīĳ": 4324,
      "æĻ°": 4325,
      "éĥ½è¦ģ": 4326,
      "ç¥¥": 4327,
      "éĿĴæĺ¥": 4328,
      "çĶŁæĢģçİ¯å¢ĥ": 4329,
      "èĭ¹æŀľ": 4330,
      "%;": 4331,
      "æĿ¥äºĨ": 4332,
      "éħ±": 4333,
      "ãĢį,": 4334,
      "ç¼ĵè§£": 4335,
      "çļĦåħ³éĶ®": 4336,
      "ä»°": 4337,
      "åŃ¤": 4338,
      "æĥħæĦŁ": 4339,
      "æĭħå½ĵ": 4340,
      "å¿į": 4341,
      "çºł": 4342,
      "åı¯æĮģç»Ń": 4343,
      "ç²¾å½©": 4344,
      "æīĵåį°": 4345,
      "åģ¥åħ¨": 4346,
      "é£ŀè¡Į": 4347,
      "éĸĢ": 4348,
      "æħ¢æĢ§": 4349,
      "çļĦåŁºæľ¬": 4350,
      "å°Ī": 4351,
      "å½°": 4352,
      "åīĬ": 4353,
      "åĲĪæ³ķ": 4354,
      "å¾Īå¿«": 4355,
      "æŃ¤åīį": 4356,
      "æ¸¸å®¢": 4357,
      "ç¦»åŃĲ": 4358,
      "åĺ´": 4359,
      "æ¯ķä¸ļçĶŁ": 4360,
      "çļĦä¸ĵä¸ļ": 4361,
      "ä»¥ä¸º": 4362,
      "ä½ĵä¼ļ": 4363,
      "æľºéģĩ": 4364,
      "æ£ī": 4365,
      "èĲ¥éĢł": 4366,
      "æĶ¯åĩº": 4367,
      "å½ķåıĸ": 4368,
      "äººæīįåŁ¹åħ»": 4369,
      "èĥ½éĩı": 4370,
      "æ¯ģ": 4371,
      "åīįè¿Ľ": 4372,
      "æķ´åĲĪ": 4373,
      "ç»´æĮģ": 4374,
      "èģĮè´£": 4375,
      "æ©¡èĥ¶": 4376,
      "åħ±åĴĮåĽ½": 4377,
      "éĿ¢åĲĳ": 4378,
      "èī¾": 4379,
      "åĬłéĢŁ": 4380,
      "ä½¿çĶ¨çļĦ": 4381,
      "å¼ķè¿Ľ": 4382,
      "åĨĽäºº": 4383,
      "åıł": 4384,
      "æĹ¥åħĥ": 4385,
      "çī©åĵģ": 4386,
      "æĥ³åĪ°": 4387,
      "æĢ»ç»ıçĲĨ": 4388,
      "éĿŀæ³ķ": 4389,
      "æĿĥåĪ©": 4390,
      "åłĨ": 4391,
      "çľ¼çĿĽ": 4392,
      "åĲ¦åĪĻ": 4393,
      "èĤºçĤİ": 4394,
      "çļĦåİĨåı²": 4395,
      "ä¸Ģæ®µ": 4396,
      "æľĢå¥½çļĦ": 4397,
      "æĬĢæľ¯çļĦ": 4398,
      "åĽ½å®¶çº§": 4399,
      "å¸ĪçĶŁ": 4400,
      "èŀįåħ¥": 4401,
      "æĦ¿æĦı": 4402,
      "è´µå·ŀ": 4403,
      "37": 4404,
      "de": 4405,
      "æĢ§è´¨": 4406,
      "æ»ļ": 4407,
      "2011": 4408,
      "çĭĤ": 4409,
      "æĶ¹éĿ©å¼ĢæĶ¾": 4410,
      "äºĶè¡ĮåĪĨæŀĲ": 4411,
      "éĶ»çĤ¼": 4412,
      "è´º": 4413,
      "åĮºåĪ«": 4414,
      "è¾ĥé«ĺ": 4415,
      "åŃ©åŃĲçļĦ": 4416,
      "çĶ³æĬ¥": 4417,
      "èµ¢å¾Ĺ": 4418,
      "æĹģ": 4419,
      "åħ¬ä¼Ĺ": 4420,
      "ä¹Łå°±": 4421,
      "æ°´çļĦ": 4422,
      "åįģåħ«": 4423,
      "æµģéĩı": 4424,
      "åĽ½å®¶çļĦ": 4425,
      "è§Ĥå¿µ": 4426,
      "è§Ħå®ļçļĦ": 4427,
      "ä¼Ļä¼´": 4428,
      "æľīä¸Ģä¸ª": 4429,
      "å¤§å¹ħ": 4430,
      "æİĺ": 4431,
      "åħ¨åĬĽ": 4432,
      "å¥½å¥½": 4433,
      "éĥ¨ä»¶": 4434,
      "æĹ¥èµ·": 4435,
      "èĩ³å°ĳ": 4436,
      "åĽ¾çīĩ": 4437,
      "æĤ¨åħ«åŃĹ": 4438,
      "çļĦå¤ĸ": 4439,
      "åħ¶å®ĥ": 4440,
      "éĢļä¿¡": 4441,
      "ç®¡éģĵ": 4442,
      "æŃ¤æĹ¶": 4443,
      "çĻ½èī²": 4444,
      "è¥¿å®ī": 4445,
      "æħ°": 4446,
      "éĻĦè¿ĳ": 4447,
      "éļĶç¦»": 4448,
      "éģĹä¼ł": 4449,
      "æ··åĲĪ": 4450,
      "æĪĲæķĪ": 4451,
      "åŁºäºİ": 4452,
      "èģĶçĽŁ": 4453,
      "åĳ¨æľŁ": 4454,
      "å¤±è´¥": 4455,
      "å®¡æŁ¥": 4456,
      "äº§çĶŁçļĦ": 4457,
      "æ¢¦æĥ³": 4458,
      "èľľ": 4459,
      "å®ªæ³ķ": 4460,
      "çļĦä¸»": 4461,
      "è®Ĭ": 4462,
      "çĶŁåŃĺ": 4463,
      "åĲĪéĢĤ": 4464,
      "ä¸ĭäºĨ": 4465,
      "å¢ĵ": 4466,
      "ä»£è°¢": 4467,
      "ç¡®å®ŀ": 4468,
      "è§ĤçĤ¹": 4469,
      "ç¦ıå»º": 4470,
      "æłĳç«ĭ": 4471,
      "å©ļå§»": 4472,
      "34": 4473,
      "æķ¸": 4474,
      "åŃ¦èĢħ": 4475,
      "èĩªè§ī": 4476,
      "åģ·": 4477,
      "æ°´æŀľ": 4478,
      "æīĢå¾Ĺ": 4479,
      "ä¸īè§Ĵ": 4480,
      "æĪĳä»¬è¦ģ": 4481,
      "å»ºè®¾çļĦ": 4482,
      "è¡Ģæ¶²": 4483,
      "éĿĴå°ĳå¹´": 4484,
      "çĽĳæİ§": 4485,
      "æĲı": 4486,
      "ç´§å¼ł": 4487,
      "è¿Ļå°±æĺ¯": 4488,
      "æ°ĳèĲ¥": 4489,
      "ç¡®è®¤": 4490,
      "ç¡®è¯Ĭ": 4491,
      "ç§ĳæĬĢåĪĽæĸ°": 4492,
      "å¤§éĩıçļĦ": 4493,
      "èľĤ": 4494,
      "ä¸Ģå¸¦": 4495,
      "åı¯è§ģ": 4496,
      "å¯¹æŃ¤": 4497,
      "åľ°çļĦ": 4498,
      "çľĭçľĭ": 4499,
      "ä¹īåĬ¡": 4500,
      "å¹²åĩĢ": 4501,
      "æ±Łè¥¿": 4502,
      "çº·çº·": 4503,
      "çĦĬæİ¥": 4504,
      "åĴĮåıĳå±ķ": 4505,
      "èµ´": 4506,
      "å¸Ĥå§Ķ": 4507,
      "ä¸īæĺ¯": 4508,
      "è§£åĨ³æĸ¹æ¡Ī": 4509,
      "å®ĹæĹ¨": 4510,
      "è´¯å½»èĲ½å®ŀ": 4511,
      "39": 4512,
      "çļĦéľĢæ±Ĥ": 4513,
      "äººæķ°": 4514,
      "å¼¯": 4515,
      "æĿ¥åĪ°": 4516,
      "æľĪç»ı": 4517,
      "æģ°": 4518,
      "åĮ»èį¯": 4519,
      "åĪĽæĦı": 4520,
      "è¿ĳæĹ¥": 4521,
      "å¸¦åĬ¨": 4522,
      "åłµ": 4523,
      "å®ŀéĻħä¸Ĭ": 4524,
      "é¡¾å®¢": 4525,
      "åľ¨ä¸į": 4526,
      "æ¯ıæ¬¡": 4527,
      "ç»ĨèıĮ": 4528,
      "åı¤ä»£": 4529,
      "å©Ĩ": 4530,
      "32": 4531,
      "çĽĨ": 4532,
      "æ³³": 4533,
      "ä¸ĬåįĪ": 4534,
      "æľ¬äºº": 4535,
      "ä¿¡åı·": 4536,
      "åĮħåĲ«": 4537,
      "è´§å¸ģ": 4538,
      "éłħ": 4539,
      "ç«ŀäºīåĬĽ": 4540,
      "æīİå®ŀ": 4541,
      "é©¬åħĭæĢĿä¸»ä¹ī": 4542,
      "åħ±æľī": 4543,
      "çłĶç©¶éĻ¢": 4544,
      "åĪĻæĺ¯": 4545,
      "åħ¸åŀĭ": 4546,
      "å·¨å¤§": 4547,
      "55": 4548,
      "å¤§æķ°æį®": 4549,
      "åľ°çĲĥ": 4550,
      "æĸ¹ä½į": 4551,
      "æ´»åĬĽ": 4552,
      "åĽŀåĪ°": 4553,
      "æĿĥçĽĬ": 4554,
      "åĦ¿åŃĲ": 4555,
      "äºĶè¡Įç¼º": 4556,
      "äººç¾¤": 4557,
      "çĲ´": 4558,
      "çŃīçº§": 4559,
      "çŁĽ": 4560,
      "å¹¶åľ¨": 4561,
      "ç»ŁçŃ¹": 4562,
      "æĳ¸": 4563,
      "åĩºçİ°äºĨ": 4564,
      "çºªå¿µ": 4565,
      "èİ·å¾ĹäºĨ": 4566,
      "ç«ŀèµĽ": 4567,
      "åıĳçļĦ": 4568,
      "çŃĽ": 4569,
      "è¿ĩæ»¤": 4570,
      "æĹ¥åŃĲ": 4571,
      "èº«ä¸Ĭ": 4572,
      "çľģå§Ķ": 4573,
      "ä¾¿åĪ©": 4574,
      "ä¸įä½Ĩ": 4575,
      "ä¸Ńæľī": 4576,
      "èĢĮåľ¨": 4577,
      "çĥŃæĥħ": 4578,
      "åĳ¨å¹´": 4579,
      "åĿĩåĮĢ": 4580,
      "éº¼": 4581,
      "åģľæŃ¢": 4582,
      "å¥¥è¿Ĳ": 4583,
      "å¸¸è§ģçļĦ": 4584,
      "åĩŃåĢŁ": 4585,
      "ED": 4586,
      "åįľ": 4587,
      "è¦ĭ": 4588,
      "å¤ļåħĥ": 4589,
      "ç§įç±»": 4590,
      "æ·®": 4591,
      "æ°ĶåĢĻ": 4592,
      "æĭħå¿ĥ": 4593,
      "æŁĲäºĽ": 4594,
      "99": 4595,
      "pp": 4596,
      "åĴĸ": 4597,
      "éĺĢ": 4598,
      "æ·ĭ": 4599,
      "æĥ³æ³ķ": 4600,
      "ç²¾åĩĨ": 4601,
      "éĺħè¯»": 4602,
      "çļĦä½¿çĶ¨": 4603,
      "é¢¨": 4604,
      "è¾¨": 4605,
      "è¯´çļĦ": 4606,
      "èĮħ": 4607,
      "å¤įåħ´": 4608,
      "æħĪ": 4609,
      "è¯ķç®¡": 4610,
      "å±ħä½ı": 4611,
      "åħļçļĦäºĮåįģå¤§": 4612,
      "éłŃ": 4613,
      "æ£®æŀĹ": 4614,
      "çĽ¸åºĶçļĦ": 4615,
      "å¼ĺæī¬": 4616,
      "48": 4617,
      "è¬": 4618,
      "å¯Ħ": 4619,
      "åħ¬å¹³": 4620,
      "åĿĬ": 4621,
      "åı¯ä»¥è¯´": 4622,
      "éĩĩè®¿": 4623,
      "æ··åĩĿ": 4624,
      "æ°ĽåĽ´": 4625,
      "è´¾": 4626,
      "åħ¬çĽĬ": 4627,
      "çĶµåĻ¨": 4628,
      "æľŁæľĽ": 4629,
      "ãĢĭ(": 4630,
      "åħ»æ®ĸ": 4631,
      "æļĳ": 4632,
      "å¨ĺ": 4633,
      "åī¯ä¹¦è®°": 4634,
      "åĵªéĩĮ": 4635,
      "åħĪè¿ĽçļĦ": 4636,
      "å°Ĭéĩį": 4637,
      "ä¸įæĺĵ": 4638,
      "äºĨæĪĳ": 4639,
      "å¥Ķ": 4640,
      "æµ¦": 4641,
      "æĸ°å¢ŀ": 4642,
      "æŁ³": 4643,
      "åį°åº¦": 4644,
      "æĸ°æĹ¶ä»£ä¸ŃåĽ½çī¹èī²ç¤¾ä¼ļä¸»ä¹ī": 4645,
      "æĺ¨": 4646,
      "èµł": 4647,
      "ç®Ń": 4648,
      "åįļçī©": 4649,
      "èĪĴéĢĤ": 4650,
      "ä¸ĬéĿ¢": 4651,
      "æĹ¥çļĦ": 4652,
      "ç©·": 4653,
      "ä¸ŃåĽ½äººæ°ĳ": 4654,
      "ä¿¡å¿µ": 4655,
      "äºĶå¹´": 4656,
      "åħ»èĢģ": 4657,
      "ç»Ŀå¯¹": 4658,
      "åºŁæ°Ķ": 4659,
      "at": 4660,
      "åŃĿ": 4661,
      "éĹª": 4662,
      "ä¹ĭè·¯": 4663,
      "çĹķ": 4664,
      "æĶ¶éĽĨ": 4665,
      "æ¯ıä¸Ģä¸ª": 4666,
      "çĮĽ": 4667,
      "æĢİæł·": 4668,
      "æĻļä¸Ĭ": 4669,
      "çĨŁæĤī": 4670,
      "ä¸¥éĩįçļĦ": 4671,
      "æĿŃå·ŀ": 4672,
      "ç°": 4673,
      "çļĦçī¹çĤ¹": 4674,
      "è¿Ł": 4675,
      "ç²¤": 4676,
      "æľįçĶ¨": 4677,
      "åŁİä¹¡": 4678,
      "è®¤å®ļ": 4679,
      "æ¶ĪéĻ¤": 4680,
      "çĶ¨æ°´": 4681,
      "è¿ĽçĲĥ": 4682,
      "ä»ĸåľ¨": 4683,
      "æįķ": 4684,
      "æĪĸè®¸": 4685,
      "æºª": 4686,
      "ä¼łæĦŁ": 4687,
      "è¿ĳæľŁ": 4688,
      "è¯»ä¹¦": 4689,
      "æ±¡æ°´å¤ĦçĲĨ": 4690,
      "ar": 4691,
      "åĬ£": 4692,
      "ä¸įçŁ¥éģĵ": 4693,
      "å¤§ä¼Ĺ": 4694,
      "è¦ģç´ł": 4695,
      "æİ¥ä¸ĭæĿ¥": 4696,
      "æĪĺæĸĹ": 4697,
      "çĸ«æĥħéĺ²æİ§": 4698,
      "åĩĿèģļ": 4699,
      "æĬĳåĪ¶": 4700,
      "æĺ¯éĿŀå¸¸": 4701,
      "çĶ¨èį¯": 4702,
      "ä¸ªæĢ§": 4703,
      "å®¶äºº": 4704,
      "å¼Ģæĭĵ": 4705,
      "æ¡Į": 4706,
      "èº«è¾¹": 4707,
      "èĮĤ": 4708,
      "åł±": 4709,
      "2008": 4710,
      "58": 4711,
      "åĲ¹": 4712,
      "åİ¦": 4713,
      "ä¸ĭåİ»": 4714,
      "å¼ĢåĲ¯": 4715,
      "æĽ´é«ĺ": 4716,
      "ç«ĭè¶³": 4717,
      "èµĽäºĭ": 4718,
      "åī¯ä¸»ä»»": 4719,
      "ç®Ģç§°": 4720,
      "49": 4721,
      "æĺ¯åĽłä¸º": 4722,
      "å¸ħ": 4723,
      "å¸Ĥæ°ĳ": 4724,
      "èĲ¬": 4725,
      "åĽ¢ä½ĵ": 4726,
      "åĽŀçŃĶ": 4727,
      "äº§ä¸ļåıĳå±ķ": 4728,
      "ç¼ĸè¾ĳ": 4729,
      "èĪŀåı°": 4730,
      "æľºåĻ¨äºº": 4731,
      "ä¸Ģç³»åĪĹ": 4732,
      "åį¢": 4733,
      "ä¿±": 4734,
      "é¢ģ": 4735,
      "åīįå¾Ģ": 4736,
      "éĢłåŀĭ": 4737,
      "åĸ®": 4738,
      "å£³": 4739,
      "æ¢¯": 4740,
      "èĢĥå¯Ł": 4741,
      "èŃ°": 4742,
      "å±¥è¡Į": 4743,
      "400": 4744,
      "éĦ": 4745,
      "ä¸įçĶ¨": 4746,
      "åĴĮåĽ½å®¶": 4747,
      "åıĳè¾¾": 4748,
      "æµĨ": 4749,
      "å»·": 4750,
      "å°ıåŃ¦": 4751,
      "çĥ¹": 4752,
      "çĪ½": 4753,
      "è°ĥçłĶ": 4754,
      "æ®¿": 4755,
      "æ¢Ŀ": 4756,
      "æ¸ħæĻ°": 4757,
      "ç§ĳåŃ¦æĬĢæľ¯": 4758,
      "ç¦ģæŃ¢": 4759,
      "è´«åĽ°": 4760,
      "çļĦåŁºç¡Ģä¸Ĭ": 4761,
      "çĸ¼çĹĽ": 4762,
      "çĻ¾åĪĨçĤ¹": 4763,
      "å®ļåĪ¶": 4764,
      "ä¸īå¤§": 4765,
      "æĥ³è±¡": 4766,
      "è¥¿æĸ¹": 4767,
      "æķĻèĤ²éĥ¨": 4768,
      "è¶³å¤Ł": 4769,
      "éļ¾åº¦": 4770,
      "åįłåľ°": 4771,
      "é¤Ĳé¥®": 4772,
      "åĲīæŀĹ": 4773,
      "65": 4774,
      "ä¸įå¤Ł": 4775,
      "åĴĮå¹³": 4776,
      "ä¸ļç»©": 4777,
      "åĩºæĿ¥çļĦ": 4778,
      "å°ıç¼ĸ": 4779,
      "ç§ĳæĻ®": 4780,
      "è§£æĶ¾": 4781,
      "çº¿ä¸Ĭ": 4782,
      "2010": 4783,
      "åĨĽäºĭ": 4784,
      "å¯Ĩå°ģ": 4785,
      "æķħéļľ": 4786,
      "ä¼łç»ŁçļĦ": 4787,
      "æħ¢æħ¢": 4788,
      "çŁĽçĽ¾": 4789,
      "åľºæĻ¯": 4790,
      "çĽ´åĪ°": 4791,
      "éĶĻè¯¯": 4792,
      "ä¸ªçĻ¾åĪĨçĤ¹": 4793,
      "æ·ĺ": 4794,
      "çľĭæĿ¥": 4795,
      "æĬ¥åĲį": 4796,
      "è¯ĨåĪ«": 4797,
      "æĴ¤": 4798,
      "çĶ·äºº": 4799,
      "çıŃåŃĲ": 4800,
      "åı¦ä¸Ģæĸ¹éĿ¢": 4801,
      "çļĦä¸Ń": 4802,
      "ä»²": 4803,
      "äººä¸º": 4804,
      "åĽ½æ°ĳ": 4805,
      "ä½ľé£İ": 4806,
      "åĪĨéħį": 4807,
      "çĽ¸ç»ĵåĲĪ": 4808,
      "å¸¸å¸¸": 4809,
      "è¿ĺèĥ½": 4810,
      "å¯Ĩåº¦": 4811,
      "ç¾¤ä½ĵ": 4812,
      "å°½å¿«": 4813,
      "å®¡æī¹": 4814,
      "2009": 4815,
      "èĩªåĬ¨åĮĸ": 4816,
      "è¸ª": 4817,
      "è¿ĩæķı": 4818,
      "æº«": 4819,
      "æµ·æ´ĭ": 4820,
      "èİ²": 4821,
      "ç§¯ç´¯": 4822,
      "çłĶç©¶æīĢ": 4823,
      "é½¿": 4824,
      "å½»åºķ": 4825,
      "å·¨å¤§çļĦ": 4826,
      "æĹłè®ºæĺ¯": 4827,
      "åĩºçĶŁäºİ": 4828,
      "PP": 4829,
      "åľ¨è¿ĻéĩĮ": 4830,
      "èĩ£": 4831,
      "åĩºåıĳ": 4832,
      "äº§éĩı": 4833,
      "èĲĿ": 4834,
      "å®īå¾½": 4835,
      "å²Ń": 4836,
      "éĶĢéĩı": 4837,
      "ç»Īäºİ": 4838,
      "çĻ½çĻľé£İæĤ£èĢħ": 4839,
      "æ¢¦è§ģ": 4840,
      "æĽ´å¥½åľ°": 4841,
      "åĲĮåŃ¦ä»¬": 4842,
      "å¥īçĮ®": 4843,
      "æľµ": 4844,
      "æĺ¯ä¸ª": 4845,
      "åĴĮåħ¶ä»ĸ": 4846,
      "æ²¦": 4847,
      "çĶµèĦĳ": 4848,
      "éĴ»": 4849,
      "æľįè£ħ": 4850,
      "èĦ¾": 4851,
      "æľįåĬ¡çļĦ": 4852,
      "åĩıè½»": 4853,
      "çĨĬ": 4854,
      "æįŁå®³": 4855,
      "åħģè®¸": 4856,
      "ä¸Ļ": 4857,
      "æľīå®³": 4858,
      "å·©": 4859,
      "ä¸įäºĨ": 4860,
      "å¤§åŃ¦çĶŁ": 4861,
      "é«ĺäºİ": 4862,
      "åĪĨç¦»": 4863,
      "ä¹Łå¾Ī": 4864,
      "ä¹Łè®¸": 4865,
      "éľ¸": 4866,
      "éľį": 4867,
      "çĹħçļĦ": 4868,
      "ä¼ĺåħĪ": 4869,
      "æĶ¾å¼ĥ": 4870,
      "çĥŃæ°´": 4871,
      "è®ºåĿĽ": 4872,
      "èĲ½åľ°": 4873,
      "è´¢å¯Į": 4874,
      "çĹĽèĭ¦": 4875,
      "æµĵåº¦": 4876,
      "éļĲæĤ£": 4877,
      "æĸ°æĹ¶ä»£ä¸ŃåĽ½çī¹èī²ç¤¾ä¼ļä¸»ä¹īæĢĿæĥ³": 4878,
      "åĨ¶": 4879,
      "å¤§çº¦": 4880,
      "æĮ¡": 4881,
      "æĢ§æł¼": 4882,
      "è¿ĩäºİ": 4883,
      "ä¸ĩåĲ¨": 4884,
      "æ¯ıä¸ªäºº": 4885,
      "äººæ°ĳç¾¤ä¼Ĺ": 4886,
      "ä¼łç»ŁæĸĩåĮĸ": 4887,
      "æłĳèĦĤ": 4888,
      "é¤Ĭ": 4889,
      "ä¸Ģä½ĵåĮĸ": 4890,
      "æľīåĬ©äºİ": 4891,
      "ä¸ĢåĢĭ": 4892,
      "å¦¹": 4893,
      "é¡Į": 4894,
      "åŃĲå¥³": 4895,
      "çĥĺ": 4896,
      "æĺİçĻ½": 4897,
      "äº§ä¸ļéĵ¾": 4898,
      "é¸Ń": 4899,
      "ä¼ĳæģ¯": 4900,
      "SO": 4901,
      "çļĦåİŁåĪĻ": 4902,
      "æľīæĹ¶": 4903,
      "åıĳè¡Į": 4904,
      "å®¶éĩĮ": 4905,
      "å°±åľ¨": 4906,
      "ç½Ĳ": 4907,
      "åĨħæ¶µ": 4908,
      "å½ĵä»£": 4909,
      "ä¸ľåĮĹ": 4910,
      "çĽ¸åħ³çļĦ": 4911,
      "çºªå½ķ": 4912,
      "èģļçĦ¦": 4913,
      "é¸£": 4914,
      "ç´§å¯Ĩ": 4915,
      "è¾½å®ģ": 4916,
      "è¯Ī": 4917,
      "å¤§æ°Ķ": 4918,
      "å¤§èµĽ": 4919,
      "ä¸ºå®¢æĪ·": 4920,
      "åİĮ": 4921,
      "åĩºåİ»": 4922,
      "æĭĮ": 4923,
      "åŀĤ": 4924,
      "åİŁæĿĲæĸĻ": 4925,
      "å®ŀçİ°äºĨ": 4926,
      "çĩĥæĸĻ": 4927,
      "å¹¿ä¸ľçľģ": 4928,
      "âĸ": 4929,
      "çļĦç®¡çĲĨ": 4930,
      "çļĦé£Łçī©": 4931,
      "ä¸įçŁ¥": 4932,
      "æĪĳæł¡": 4933,
      "åħ¬åĬ¡": 4934,
      "æľĢä½İ": 4935,
      "æİ¥è¿ĳ": 4936,
      "ä¸¤äºº": 4937,
      "åį±æľº": 4938,
      "èĢĢ": 4939,
      "æ²ĥ": 4940,
      "å¯¹æīĭ": 4941,
      "å¸ĤæĶ¿åºľ": 4942,
      "æĻĴ": 4943,
      "åīįæĻ¯": 4944,
      "å°ıè¯´": 4945,
      "åĽŀæĶ¶": 4946,
      "æĢĿè·¯": 4947,
      "èĮĥåĽ´åĨħ": 4948,
      "ä¸Ī": 4949,
      "é«ĺæĸ°æĬĢæľ¯": 4950,
      "éģ£": 4951,
      "éĥİ": 4952,
      "ä»ĸåĢĳ": 4953,
      "æķĻç»ĥ": 4954,
      "åıĺæĪĲ": 4955,
      "å§Ķæīĺ": 4956,
      "æ¶ĪèĢĹ": 4957,
      "èµ°åĲĳ": 4958,
      "èĤ¡ç¥¨": 4959,
      "çĸ¾çĹħçļĦ": 4960,
      "ä¸Ńåįİäººæ°ĳ": 4961,
      "è¿Ŀåıį": 4962,
      "æ··åĩĿåľŁ": 4963,
      "æĢĴ": 4964,
      "åĬ¨æĢģ": 4965,
      "åĲĪæĪĲ": 4966,
      "èī³": 4967,
      "èĬĿ": 4968,
      "åĲįåįķ": 4969,
      "è£ķ": 4970,
      "åģļäºĨ": 4971,
      "æĬ¥èĢĥ": 4972,
      "è¾ĥä½İ": 4973,
      "å®ĥæĺ¯": 4974,
      "å¥ĸåĬ±": 4975,
      "çºªå¾ĭ": 4976,
      "å·®è·Ŀ": 4977,
      "å¼ķèµ·çļĦ": 4978,
      "è«ĭ": 4979,
      "æľ´": 4980,
      "æľīåĬĽ": 4981,
      "æľīä»Ģä¹Ī": 4982,
      "ä¹Łæ²¡æľī": 4983,
      "åīįåĪĹ": 4984,
      "èĥº": 4985,
      "éĹ®é¢ĺçļĦ": 4986,
      "ä»ĬåĲİ": 4987,
      "æ¸©æļĸ": 4988,
      "å¥¹ä»¬": 4989,
      "çĻ¾å§ĵ": 4990,
      "èĪªå¤©": 4991,
      "ä¼ĳéĹ²": 4992,
      "éĩĬæĶ¾": 4993,
      "al": 4994,
      "çļĦè®¾è®¡": 4995,
      "èµĶ": 4996,
      "èĤĸ": 4997,
      "ç¨»": 4998,
      "æ°´åĪ©": 4999,
      "æĹ¥çĽĬ": 5000,
      "éĢļé£İ": 5001,
      "æĪĸæĺ¯": 5002,
      "åģļæ³ķ": 5003,
      "éĢĤçĶ¨": 5004,
      "é»Ħéĩĳ": 5005,
      "è®²è§£": 5006,
      "ä¸¾æİª": 5007,
      "å£°éŁ³": 5008,
      "å®ĹæķĻ": 5009,
      "çļĦçĶŁäº§": 5010,
      "èµļ": 5011,
      "å®¶å±ħ": 5012,
      "åĲĮæĦı": 5013,
      "æ°ĳçĶŁ": 5014,
      "ç¬¬åħŃ": 5015,
      "å¹¶éĿŀ": 5016,
      "æĢ»ç»Ł": 5017,
      "æĶ¹è¿Ľ": 5018,
      "ç¤¾ä¼ļç»Ħç»ĩ": 5019,
      "æ¼Ĥ": 5020,
      "è½¬ç§»": 5021,
      "æĤł": 5022,
      "åıįå¯¹": 5023,
      "æĪ¿å±ĭ": 5024,
      "è¡Ĺéģĵ": 5025,
      "æĲŃéħį": 5026,
      "éŀĭ": 5027,
      "çĶ¨æĿ¥": 5028,
      "èĬ¯": 5029,
      "æĶ¾åħ¥": 5030,
      "è¾ħåĬ©": 5031,
      "äºĭå®ŀä¸Ĭ": 5032,
      "ä»Ķ": 5033,
      "å¼Ĺ": 5034,
      "çĽĴ": 5035,
      "è¾Ĳ": 5036,
      "æĸ°åħ´": 5037,
      "é¡ŀ": 5038,
      "èµ·äºĨ": 5039,
      "åł¡": 5040,
      "çĨ±": 5041,
      "æķ£çĥŃ": 5042,
      "66": 5043,
      "or": 5044,
      "èĢķ": 5045,
      "åıĳè¨Ģ": 5046,
      "é¢ĸ": 5047,
      "æ¯ħ": 5048,
      "è¾©": 5049,
      "æīĢéľĢ": 5050,
      "æŁ´": 5051,
      "çĶ±æŃ¤": 5052,
      "æ¯ıæĹ¥": 5053,
      "è©²": 5054,
      "æĸĮ": 5055,
      "ä¸ŃåŃ¦": 5056,
      "éĥ¨éķ¿": 5057,
      "åĿª": 5058,
      "è£¡": 5059,
      "æĸĹäºī": 5060,
      "æİĪæĿĥ": 5061,
      "éĺ´éģĵ": 5062,
      "èĥİåĦ¿": 5063,
      "å¤¹": 5064,
      "æĺ¯å¯¹": 5065,
      "äººåĬĽ": 5066,
      "åħ¬åĳĬ": 5067,
      "å°±æľī": 5068,
      "éĢļéģĵ": 5069,
      "èį¡": 5070,
      "åķ¡": 5071,
      "åķı": 5072,
      "æ¡ĳ": 5073,
      "è¥¿éĥ¨": 5074,
      "èĻ¾": 5075,
      "çĪ±çļĦ": 5076,
      "èº«ä½ĵåģ¥åº·": 5077,
      "éĢıæĺİ": 5078,
      "ä¸įå¾Ĺä¸į": 5079,
      "çľŁæŃ£çļĦ": 5080,
      "æĭįæĳĦ": 5081,
      "çĿ¡çľł": 5082,
      "èĤ¡ä»½æľīéĻĲåħ¬åı¸": 5083,
      "ä¹¾": 5084,
      "åİī": 5085,
      "æĽ°": 5086,
      "å¤Ħç½®": 5087,
      "ç²¾åº¦": 5088,
      "å½±è§Ĩ": 5089,
      "æµ·åįĹ": 5090,
      "è®©æĪĳ": 5091,
      "ç»´åº¦": 5092,
      "æ£Ģå¯Ł": 5093,
      "æ¡Īä¾ĭ": 5094,
      "éĤ»": 5095,
      "åį°è±¡": 5096,
      "åĨ·åį´": 5097,
      "èµ·éĩįæľº": 5098,
      "æĺ¯æĪĳ": 5099,
      "ä¸ŃéĹ´": 5100,
      "ä¼ļåľ¨": 5101,
      "å¿ĥéĩĮ": 5102,
      "ä¿Ŀåħ»": 5103,
      "åĨħå¤ĸ": 5104,
      "å¼ºåĪ¶": 5105,
      "æĮĩæĮ¥": 5106,
      "ç«Ļåľ¨": 5107,
      "æĿĳæ°ĳ": 5108,
      "æ¿ĢåĬ±": 5109,
      "é¸¿": 5110,
      "éĮ": 5111,
      "çļĦè¿ĩç¨ĭä¸Ń": 5112,
      "å¯ĵ": 5113,
      "åĪ°è¾¾": 5114,
      "çŃīåľ°": 5115,
      "æ¸¡": 5116,
      "çģ£": 5117,
      "ç½ĳä¸Ĭ": 5118,
      "è¥¿çıŃ": 5119,
      "è§Ĩè§ī": 5120,
      "çĪ±åĽ½": 5121,
      "å¿ħçĦ¶": 5122,
      "åĳ¨è¾¹": 5123,
      "ç£·": 5124,
      "åĮĹäº¬å¸Ĥ": 5125,
      "åİļçļĦ": 5126,
      "è¼ĥ": 5127,
      "====": 5128,
      "æĺĤ": 5129,
      "è¦ĸ": 5130,
      "é¢ĩ": 5131,
      "çŁ©": 5132,
      "ç³ķ": 5133,
      "ä¸¤å¹´": 5134,
      "æķ´çĲĨ": 5135,
      "åº·å¤į": 5136,
      "åįıåĬ©": 5137,
      "ä¸Ńåįİäººæ°ĳåħ±åĴĮåĽ½": 5138,
      "ãĢĤãĢį": 5139,
      "æ¬ł": 5140,
      "çĸ¹": 5141,
      "éķ¿æ±Ł": 5142,
      "ç¬¬ä¸Ģä¸ª": 5143,
      "æķ°æİ§": 5144,
      "æĤ¦": 5145,
      "è¯ķçĤ¹": 5146,
      "éĨī": 5147,
      "å°ºå¯¸": 5148,
      "ç§īæī¿": 5149,
      "68": 5150,
      "ĠâĢľ": 5151,
      "åĲķ": 5152,
      "çĶ¨éĢĶ": 5153,
      "å¤ļå¹´çļĦ": 5154,
      "èĤ©": 5155,
      "æ¸´": 5156,
      "èĥĸ": 5157,
      "èįĴ": 5158,
      "åħļåı²": 5159,
      "åĶ®åĲİ": 5160,
      "å®¡æł¸": 5161,
      "åħļå§Ķä¹¦è®°": 5162,
      "åĴĸåķ¡": 5163,
      "è¥¿çıŃçīĻ": 5164,
      "95": 5165,
      "ä¸§": 5166,
      "ä¸ºæł¸å¿ĥ": 5167,
      "åĩºè¡Į": 5168,
      "éģ¥": 5169,
      "å°ıç±³": 5170,
      "éĶ¡": 5171,
      "åĲįç§°": 5172,
      "è£Ŀ": 5173,
      "å±Ģéĥ¨": 5174,
      "åıĤè§Ĥ": 5175,
      "èªį": 5176,
      "å®«é¢Ī": 5177,
      "ç¦ģåĮº": 5178,
      "åįļçī©é¦Ĩ": 5179,
      "çļĦä¸ŃåĽ½": 5180,
      "ãĢĤãĢĤ": 5181,
      "è®¼": 5182,
      "æĮº": 5183,
      "åħ¬æ°ĳ": 5184,
      "éķ¿æ²Ļ": 5185,
      "æĸĩçī©": 5186,
      "æĽ´æį¢": 5187,
      "å¾Īæľī": 5188,
      "åĲĦèĩª": 5189,
      "ç¼Ĩ": 5190,
      "éĩĮéĿ¢": 5191,
      "éĤ£æł·": 5192,
      "æ¶Īå¤±": 5193,
      "èĳ±": 5194,
      "éļ¾é¢ĺ": 5195,
      "å¯Įæľī": 5196,
      "æ¸¯æ¾³": 5197,
      "éŃı": 5198,
      "æĶ»åĿļ": 5199,
      "åĪĳäºĭ": 5200,
      "æģĴå¤§": 5201,
      "ä¼Ĳ": 5202,
      "ä¸Ģçº¿": 5203,
      "èĢ¶": 5204,
      "æľĢæĸ°": 5205,
      "ä¸ĵç§ĳ": 5206,
      "èĤ²äºº": 5207,
      "åıįå¤į": 5208,
      "æıĲé«ĺäºĨ": 5209,
      "åĢºæĿĥ": 5210,
      "çļĦåıĺåĮĸ": 5211,
      "å®Ļ": 5212,
      "èµģ": 5213,
      "è¦ģæľī": 5214,
      "éĥ½åı¯ä»¥": 5215,
      "å¼ºå¤§": 5216,
      "åĻª": 5217,
      "ä¹¦æ³ķ": 5218,
      "é¢ĦæľŁ": 5219,
      "åłª": 5220,
      "èĤ¡æĿĥ": 5221,
      "çīĪçĶ»": 5222,
      "éĢıéľ²": 5223,
      "åıĳåĬ¨æľº": 5224,
      "LED": 5225,
      "et": 5226,
      "åħĨ": 5227,
      "è¿Ľç¨ĭ": 5228,
      "æ¶¯": 5229,
      "è¿ĺåľ¨": 5230,
      "åĲįçļĦ": 5231,
      "ç¾İè§Ĥ": 5232,
      "åģļçļĦ": 5233,
      "æĶ¾æĿ¾": 5234,
      "ä¸ľæĸ¹": 5235,
      "éĢīçĶ¨": 5236,
      "éĿĴå²Ľ": 5237,
      "èĤ¡ä¸ľ": 5238,
      "æĺ¥èĬĤ": 5239,
      "çĴ°": 5240,
      "æ¯ķç«Ł": 5241,
      "ä¹łè¿ĳå¹³æĸ°æĹ¶ä»£ä¸ŃåĽ½çī¹èī²ç¤¾ä¼ļä¸»ä¹īæĢĿæĥ³": 5242,
      "ç§Łèµģ": 5243,
      "éĽķå¡ĳ": 5244,
      "èŁ": 5245,
      "çļĦä¸ľè¥¿": 5246,
      "äººæĸĩ": 5247,
      "åĮ¹": 5248,
      "ä¸įéľĢè¦ģ": 5249,
      "å¼Ħ": 5250,
      "è¿Ļéĥ¨": 5251,
      "ä½ĵåĨħ": 5252,
      "ä¹Łåı¯": 5253,
      "æĽĿ": 5254,
      "æľºåºĬ": 5255,
      "è°Ĭ": 5256,
      "å½ĵäºĭ": 5257,
      "å·²æľī": 5258,
      "æīįæĺ¯": 5259,
      "éŁ¦": 5260,
      "ç§°åı·": 5261,
      "ä¾ĿéĿł": 5262,
      "æĬķèµĦèĢħ": 5263,
      "150": 5264,
      "åįĥä¸ĩ": 5265,
      "éģµå®Ī": 5266,
      "ä¸Ģæĸ¹éĿ¢": 5267,
      "å·¢": 5268,
      "åľ°æĿ¿": 5269,
      "æĦĽ": 5270,
      "é£ĺ": 5271,
      "æ°´æ³¥": 5272,
      "æ¶Į": 5273,
      "æĪĳä»¬åľ¨": 5274,
      "ç¾İå¥½": 5275,
      "å¯¼åĲĳ": 5276,
      "å±±è¥¿": 5277,
      "å±Ģéķ¿": 5278,
      "å®¢è§Ĥ": 5279,
      "æİ§èĤ¡": 5280,
      "æľªæĿ¥çļĦ": 5281,
      "äººæ°ĳæ³ķéĻ¢": 5282,
      "æī¿è¯º": 5283,
      "å¾ĭå¸Ī": 5284,
      "è´§çī©": 5285,
      "èĵĦ": 5286,
      "å»¶éķ¿": 5287,
      "éĤĢè¯·": 5288,
      "çļĦçİ¯å¢ĥ": 5289,
      "çļĦæķĪæŀľ": 5290,
      "ä¼ª": 5291,
      "ä¸ĢçĶŁ": 5292,
      "å¹½": 5293,
      "åĽ½çļĦ": 5294,
      "æµ´": 5295,
      "è¾¦": 5296,
      "èĥģ": 5297,
      "åŀĦ": 5298,
      "å¯¼æ¼Ķ": 5299,
      "éĺ²èħĲ": 5300,
      "å¥³åŃ©": 5301,
      "äºĪä»¥": 5302,
      "éŃħ": 5303,
      "åĢºåĬ¡": 5304,
      "èĽĭçĻ½è´¨": 5305,
      "85": 5306,
      "å¼·": 5307,
      "æĬĽ": 5308,
      "æĸ°é²ľ": 5309,
      "éĩįå¤į": 5310,
      "ä¿¡ä»»": 5311,
      "æĹłäºº": 5312,
      "æĿĥå¨ģ": 5313,
      "èĢĲç£¨": 5314,
      "é£ŀæľº": 5315,
      "ç¶²": 5316,
      "æ¡¥æ¢ģ": 5317,
      "åŀĦæĸŃ": 5318,
      "ä¸ĺ": 5319,
      "åľ¨è¿Ļä¸ª": 5320,
      "å¸½": 5321,
      "èµ¤": 5322,
      "çº²": 5323,
      "åľ°çĲĨ": 5324,
      "èĩªè¡Į": 5325,
      "å¿ĥæĥħ": 5326,
      "åħ¥åı£": 5327,
      "åħļç»Ħç»ĩ": 5328,
      "å½¢æĢģ": 5329,
      "åĽ½å®¶åĴĮ": 5330,
      "åı£ç½©": 5331,
      "éĤĵ": 5332,
      "éĴ¢éĵģ": 5333,
      "ä»¥ä¸ĬçļĦ": 5334,
      "è¯īè®¼": 5335,
      "å¤ļæķ°": 5336,
      "çŃīå¾ħ": 5337,
      "åľ°éĵģ": 5338,
      "åĬ¨çĶ»": 5339,
      "åĨħèĴĻåı¤": 5340,
      "é£İæĻ¯": 5341,
      "ä¸Ģä¸ªæĸ°çļĦ": 5342,
      "çº¿è·¯": 5343,
      "å¥³åŃĲ": 5344,
      "åĭŁ": 5345,
      "é¡¹çĽ®çļĦ": 5346,
      "çĨĶ": 5347,
      "éĨ«": 5348,
      "èį£èİ·": 5349,
      "ç·ļ": 5350,
      "åħĦå¼Ł": 5351,
      "ä¸Ģåľº": 5352,
      "å±Ī": 5353,
      "å¤§å°ı": 5354,
      "æ³ķæ²»": 5355,
      "æľŁè´§": 5356,
      "é»İ": 5357,
      "äº§åĵģè´¨éĩı": 5358,
      "éŁ§": 5359,
      "æĺ¯ä¸Ģå®¶": 5360,
      "ä½ıå®ħ": 5361,
      "ä¿®å¤į": 5362,
      "æ¿Ģåıĳ": 5363,
      "çĶ·åŃĲ": 5364,
      "è¾ĵéĢģ": 5365,
      "å¿ĹæĦ¿èĢħ": 5366,
      "åļ": 5367,
      "äºŃ": 5368,
      "å°İ": 5369,
      "âĢķ": 5370,
      "ä¸įå¿ĺ": 5371,
      "æĬ¼": 5372,
      "è¦ı": 5373,
      "ä¼ļåĳĺ": 5374,
      "çŃĭ": 5375,
      "è¿Ļä¹Łæĺ¯": 5376,
      "åħ¨æĸ¹ä½į": 5377,
      "åĽłçĤº": 5378,
      "å¤ĸçķĮ": 5379,
      "æĽ´æľī": 5380,
      "ä¸ĵé¢ĺ": 5381,
      "éĺŁçļĦ": 5382,
      "èĩ³äºİ": 5383,
      "åĭĺ": 5384,
      "ä¸ĵä¸ļæĬĢæľ¯": 5385,
      "åħĭæĸ¯": 5386,
      "éļıæĹ¶": 5387,
      "2023": 5388,
      "æĿ¡ä»¶çļĦ": 5389,
      "æĬĵå¥½": 5390,
      "é¢Ĺç²Ĵ": 5391,
      "çļĦçłĶç©¶": 5392,
      "æĸľ": 5393,
      "çĽ²": 5394,
      "çºĮ": 5395,
      "æŀª": 5396,
      "å°Ĩåħ¶": 5397,
      "èĪī": 5398,
      "ä¸ĵæ³¨": 5399,
      "ç®¡çĲĨä½ĵç³»": 5400,
      "è®©ä½ł": 5401,
      "çħ§çīĩ": 5402,
      "è´¢äº§": 5403,
      "çº³åħ¥": 5404,
      "æĤ¨çļĦ": 5405,
      "çµ±": 5406,
      "ç´«å¤ĸ": 5407,
      "åįģåĽĽäºĶ": 5408,
      "çººç»ĩ": 5409,
      "ä¼ļå¯¼èĩ´": 5410,
      "çŃĴ": 5411,
      "åľ°éĿ¢": 5412,
      "è½ī": 5413,
      "ä¹Łä¸įä¼ļ": 5414,
      "äºĭåĬ¡": 5415,
      "çĶµç«Ļ": 5416,
      "åħļæĶ¯éĥ¨": 5417,
      "ä¸ľåįĹ": 5418,
      "ç»ĨèĬĤ": 5419,
      "åĽ¾ä¹¦": 5420,
      "è½»æĿ¾": 5421,
      "ç¿Ķ": 5422,
      "ç§ĺä¹¦": 5423,
      "æī¶è´«": 5424,
      "76": 5425,
      "ä¸įå¼Ģ": 5426,
      "è¡Ķ": 5427,
      "åŃ¦åĳĺ": 5428,
      "é«ĺè¾¾": 5429,
      "æĭĸ": 5430,
      "ä»ĸè¯´": 5431,
      "æıĲåıĸ": 5432,
      "ä¿ĿçķĻ": 5433,
      "å¼ºå¤§çļĦ": 5434,
      "æį®äºĨè§£": 5435,
      "éªĳ": 5436,
      "è¯Ħå®¡": 5437,
      "ä¸įä»ħä»ħ": 5438,
      "å¤ıåŃ£": 5439,
      "es": 5440,
      "ä¸Ńè¶ħ": 5441,
      "ä»¥åħį": 5442,
      "è¿Ľå±ķ": 5443,
      "å¦Ĩ": 5444,
      "åħ³èĬĤ": 5445,
      "æĬĢå·§": 5446,
      "æĦıå¤ĸ": 5447,
      "å¢ŀéĢŁ": 5448,
      "æł¡éķ¿": 5449,
      "çĬ¹": 5450,
      "åı°æ¹¾": 5451,
      "ç³ĸå°¿": 5452,
      "å¸¦æĿ¥äºĨ": 5453,
      "æŃ£ç¡®çļĦ": 5454,
      "çļĦåĨħå®¹": 5455,
      "æĺ¯ä¸įæĺ¯": 5456,
      "åĵŃ": 5457,
      "å¯¹æİ¥": 5458,
      "åĩºè¡Ģ": 5459,
      "çŃīå¤ļ": 5460,
      "åĲĪçī©": 5461,
      "æĽ´å¤§çļĦ": 5462,
      "çĶŁäº§çļĦ": 5463,
      "è½¬è®©": 5464,
      "å·¥ç¨ĭå¸Ī": 5465,
      "æ¿Ģåħī": 5466,
      "è¿ĲåĬ¨åĳĺ": 5467,
      "çĺ¦": 5468,
      "56": 5469,
      "éĬ": 5470,
      "çļĦæķħäºĭ": 5471,
      "åĩ½": 5472,
      "ç§©": 5473,
      "å·¥äºº": 5474,
      "æ°´ä¸Ń": 5475,
      "çĶµæľº": 5476,
      "æĦıå¤§åĪ©": 5477,
      "ä»İä¸ļ": 5478,
      "æį®æĤī": 5479,
      "è·¯çº¿": 5480,
      "éĢīä¸¾": 5481,
      "èĬĤçº¦": 5482,
      "çĩķ": 5483,
      "åľ°åĮºçļĦ": 5484,
      "çµĦ": 5485,
      "ä¼łæĦŁåĻ¨": 5486,
      "è¾Ĳå°Ħ": 5487,
      "ãĢģâĢľ": 5488,
      "éĢ»": 5489,
      "æĭ³": 5490,
      "ä¹Łå°Ĩ": 5491,
      "ä¹ĭä¸ĭ": 5492,
      "æĶ¿åįı": 5493,
      "åı¯ä»¥éĢļè¿ĩ": 5494,
      "æĹłçĸĳ": 5495,
      "æĶ¶è´¹": 5496,
      "æĬ¥èŃ¦": 5497,
      "åĳ³éģĵ": 5498,
      "æľīåħ³éĥ¨éĹ¨": 5499,
      "æ¡£æ¡Ī": 5500,
      "78": 5501,
      "çİĽ": 5502,
      "ä¼ļçļĦ": 5503,
      "å¯¹åħ¶": 5504,
      "æľ¬è´¨": 5505,
      "æĽ´å¤§": 5506,
      "éĴł": 5507,
      "æĢ»çĲĨ": 5508,
      "è¾ĥé«ĺçļĦ": 5509,
      "çī¢è®°": 5510,
      "èĲĿåįľ": 5511,
      "64": 5512,
      "ä¸Ģçº§": 5513,
      "ä¸įåľ¨": 5514,
      "âĢĿ(": 5515,
      "åīĩ": 5516,
      "åħ¨èº«": 5517,
      "å»Ĭ": 5518,
      "åĲĮæľŁ": 5519,
      "ç¥Ń": 5520,
      "å½¢çĬ¶": 5521,
      "é¥¼": 5522,
      "åį³å°Ĩ": 5523,
      "ä»ĭè´¨": 5524,
      "åįĬåľº": 5525,
      "ç¼ĸåĪ¶": 5526,
      "è¯ĬçĸĹ": 5527,
      "æī©æķ£": 5528,
      "çĩĥçĥ§": 5529,
      "åĨ¬åŃ£": 5530,
      "sh": 5531,
      "ä¸¢": 5532,
      "çĲ³": 5533,
      "æĪĳå¸ĮæľĽ": 5534,
      "åĪ°çļĦ": 5535,
      "å¿ĥæĢģ": 5536,
      "èĢĮä¸įæĺ¯": 5537,
      "çĶµæ°Ķ": 5538,
      "æ£ĭ": 5539,
      "ä¼ĺæĥł": 5540,
      "éĩįè¦ģçļĦæĺ¯": 5541,
      "å¾®çĶŁçī©": 5542,
      "ç¨ĭåº¦ä¸Ĭ": 5543,
      "ä¹Ļçĥ¯": 5544,
      "çļĦè§Ħå®ļ": 5545,
      "åľĸ": 5546,
      "æĺ¯ä»¥": 5547,
      "è¡ĵ": 5548,
      "åĴ³": 5549,
      "æĬ¹": 5550,
      "è§Ģ": 5551,
      "éģĶ": 5552,
      "åĽłèĢĮ": 5553,
      "å·¥ä½ľèĢħ": 5554,
      "ä½Ĩåľ¨": 5555,
      "è§£çŃĶ": 5556,
      "å¢ŀåĢ¼": 5557,
      "å½¢å®¹": 5558,
      "æ¼ł": 5559,
      "æ¸¸æ³³": 5560,
      "äºĴåĬ¨": 5561,
      "çİ°åľ¨çļĦ": 5562,
      "è¡¥è´´": 5563,
      "æĬĵä½ı": 5564,
      "é¹ı": 5565,
      "éī´å®ļ": 5566,
      "çĽĹ": 5567,
      "çĶŁçĲĨ": 5568,
      "å¹´åīį": 5569,
      "å¹´åºķ": 5570,
      "æ³ª": 5571,
      "æĸ¹éĴĪ": 5572,
      "èģª": 5573,
      "åĮºçļĦ": 5574,
      "è¢Ń": 5575,
      "æİ¥å¾ħ": 5576,
      "éĽĨæĪĲ": 5577,
      "æĬ¤æłı": 5578,
      "åĨįçĶŁ": 5579,
      "æ¨¡åŀĭ": 5580,
      "éĢĤéĩı": 5581,
      "æĺ¾çĦ¶": 5582,
      "åĩıèĤ¥": 5583,
      "ä¾Ŀæīĺ": 5584,
      "å®ĩå®Ļ": 5585,
      "å¦»åŃĲ": 5586,
      "77": 5587,
      "çļĦåħ³ç³»": 5588,
      "åį§": 5589,
      "æľīåºı": 5590,
      "æī®": 5591,
      "å¤ļåĲĥ": 5592,
      "æĭ¨": 5593,
      "æľŁéĻĲ": 5594,
      "èĥļ": 5595,
      "éĶĲ": 5596,
      "æĢ»å±Ģ": 5597,
      "å¥³åĦ¿": 5598,
      "ä½¿çĶ¨å¯¿åĳ½": 5599,
      "æĿĲè´¨": 5600,
      "äºĴçĽ¸": 5601,
      "èģĮä¸ļæķĻèĤ²": 5602,
      "å¤«å¦»": 5603,
      "æŃĮæĽ²": 5604,
      "éĽ¶åĶ®": 5605,
      "çİīç±³": 5606,
      "èĤĮèĤī": 5607,
      "å½¼æŃ¤": 5608,
      "44": 5609,
      "ä¸Ģä»½": 5610,
      "æ°®": 5611,
      "ä¸ºä¸Ńå¿ĥ": 5612,
      "æĬļ": 5613,
      "è¿Ļä½į": 5614,
      "è¿Ļç±»": 5615,
      "æĥ§": 5616,
      "é«ĺéĵģ": 5617,
      "éĿ¢åīį": 5618,
      "å¿ĥèĦı": 5619,
      "éĢļæĬ¥": 5620,
      "ç³Ĭ": 5621,
      "æľįåĭĻ": 5622,
      "çĻ½éħĴ": 5623,
      "å±ĢéĿ¢": 5624,
      "æ¨¡æĭŁ": 5625,
      "çŃ¾è®¢": 5626,
      "æ±Łèĭıçľģ": 5627,
      "å·©åĽº": 5628,
      "åı¹": 5629,
      "åį¸": 5630,
      "éĹ¹": 5631,
      "å¯¹å¾ħ": 5632,
      "å¤ĸåĽ½": 5633,
      "åįıä½ľ": 5634,
      "æĻ¯è§Ĥ": 5635,
      "ä¿®æĶ¹": 5636,
      "åŃ¦æł¡çļĦ": 5637,
      "2007": 5638,
      "æķ°æį®æĺ¾ç¤º": 5639,
      "èĦ±è´«": 5640,
      "æııè¿°": 5641,
      "ç§©åºı": 5642,
      "åıĽ": 5643,
      "ä¸įå¦Ĥ": 5644,
      "éĥ¨çļĦ": 5645,
      "å¹³å®ī": 5646,
      "æĸ¯çī¹": 5647,
      "åı¯èĥ½æĺ¯": 5648,
      "æĻ®åıĬ": 5649,
      "éĴ¢ç»ĵæŀĦ": 5650,
      "æĻĤéĸĵ": 5651,
      "äººä»¬çļĦ": 5652,
      "æĻºèĥ½åĮĸ": 5653,
      "èĶ¡": 5654,
      "æķ°åŃĹåĮĸ": 5655,
      "çļĦè´¨éĩı": 5656,
      "çļĦè¿ĩç¨ĭ": 5657,
      "çļĦæł¸å¿ĥ": 5658,
      "å¥ł": 5659,
      "çĶ¨åĵģ": 5660,
      "è¿ĩåº¦": 5661,
      "çķľ": 5662,
      "æķĻæĿĲ": 5663,
      "æŁı": 5664,
      "äºĮæ¬¡": 5665,
      "æºĥ": 5666,
      "éĺ²èĮĥ": 5667,
      "æĶ¶è´Ń": 5668,
      "èµ°è¿Ľ": 5669,
      "åħħè¶³": 5670,
      "åĤ³": 5671,
      "èĨı": 5672,
      "èĭıå·ŀ": 5673,
      "å¨ģèĥģ": 5674,
      "æķıæĦŁ": 5675,
      "å¹¼åĦ¿åĽŃ": 5676,
      "èĺ": 5677,
      "å¸¶": 5678,
      "è¦º": 5679,
      "çŃīé¢ĨåŁŁ": 5680,
      "æĸ°åıĳå±ķ": 5681,
      "éĩĳé¢Ŀ": 5682,
      "è¢«åĳĬ": 5683,
      "ä¼ĺå¼Ĥ": 5684,
      "å¹¿åľº": 5685,
      "çħĮ": 5686,
      "éĤª": 5687,
      "ç¿Ĵ": 5688,
      "ç¯Ģ": 5689,
      "éĢĢä¼ĳ": 5690,
      "éĽ¶ä»¶": 5691,
      "çļĦå®īåħ¨": 5692,
      "è¡·": 5693,
      "èµ«": 5694,
      "åīµ": 5695,
      "éĩįéĩı": 5696,
      "åĲĮäºĭ": 5697,
      "ç§įåŃĲ": 5698,
      "å½ĵå¹´": 5699,
      "æīĵçł´": 5700,
      "æīĵåĩ»": 5701,
      "èĬĤçľģ": 5702,
      "çĽ´æĴŃ": 5703,
      "è¶ħè¶Ĭ": 5704,
      "æĵħ": 5705,
      "çģµæ´»": 5706,
      "éģµå¾ª": 5707,
      "æ§½": 5708,
      "ç²®é£Ł": 5709,
      "è½¨éģĵ": 5710,
      "çĭ¬çī¹çļĦ": 5711,
      "43": 5712,
      ":ãĢĮ": 5713,
      "çļĦå¸Ĥåľº": 5714,
      "ä¹Ķ": 5715,
      "å¼µ": 5716,
      "æĢ¨": 5717,
      "å¥Ī": 5718,
      "ä¸ļåĨħ": 5719,
      "å¤ļå¹´æĿ¥": 5720,
      "éģ®": 5721,
      "éĩįç»Ħ": 5722,
      "åĨħå¿ĥ": 5723,
      "åıĺå½¢": 5724,
      "æĶ¶èİ·": 5725,
      "çĬ¬": 5726,
      "åĬŁçİĩ": 5727,
      "ç¢Ĺ": 5728,
      "é¢Ħæµĭ": 5729,
      "æĳĺ": 5730,
      "æ²³åįĹçľģ": 5731,
      "42": 5732,
      "ch": 5733,
      "è¯ŀ": 5734,
      "å¯¨": 5735,
      "æ±°": 5736,
      "å®ŀåľ¨": 5737,
      "ä¸»æ¼Ķ": 5738,
      "åĲĮæŃ¥": 5739,
      "åħ¥å¢ĥ": 5740,
      "ç»ĵå©ļ": 5741,
      "åĻ¨æ¢°": 5742,
      "å¢ĥå¤ĸ": 5743,
      "ç©ºè°ĥ": 5744,
      "æ¶Īæ¯Ĵ": 5745,
      "è®²è¿°": 5746,
      "é¾Ļæ±Ł": 5747,
      "æŁĲç§į": 5748,
      "æĩĪ": 5749,
      "æĭĽåķĨ": 5750,
      "ç¡¬åº¦": 5751,
      "åĬ³åĬ¨èĢħ": 5752,
      "çļĩå¸Ŀ": 5753,
      "é»ĳèī²ç´ł": 5754,
      "3000": 5755,
      "it": 5756,
      "çļĦæĥħ": 5757,
      "å¾Īé«ĺ": 5758,
      "åĲĦçķĮ": 5759,
      "åİ»éĻ¤": 5760,
      "åİŁæľ¬": 5761,
      "åĽĽå¤§": 5762,
      "åĽŀå®¶": 5763,
      "çŃĸçķ¥": 5764,
      "éĴ¢ç®¡": 5765,
      "æī¹è¯Ħ": 5766,
      "æ¬§çĽŁ": 5767,
      "çµ¦": 5768,
      "çĦ¦èĻĳ": 5769,
      "ä¹¡æĿĳæĮ¯åħ´": 5770,
      "å°Ŀè¯ķ": 5771,
      "ä¸ŃåĴĮ": 5772,
      "åºĻ": 5773,
      "å¤§äºİ": 5774,
      "æıĲäº¤": 5775,
      "èĬĴ": 5776,
      "çĽ¸ä¼¼": 5777,
      "ç¾İé£Ł": 5778,
      "æ¨¡åħ·": 5779,
      "éħįå¤ĩ": 5780,
      "ä¾¿æį·": 5781,
      "è¾ĵåĩº": 5782,
      "è²¡": 5783,
      "èŃ¦æĸ¹": 5784,
      "åµ": 5785,
      "åĨ¯": 5786,
      "åĴĮç®¡çĲĨ": 5787,
      "è¦ģæĬĬ": 5788,
      "æĪĲå¹´": 5789,
      "æĢ§å¥½": 5790,
      "æ¬Ĭ": 5791,
      "å®ļä¹ī": 5792,
      "æĹ¥åīį": 5793,
      "å°ıåĮº": 5794,
      "ä¼ģä¸ļåľ¨": 5795,
      "è§Ħæł¼": 5796,
      "åĸ»": 5797,
      "åģ¥èº«": 5798,
      "å¾®åįļ": 5799,
      "åĲ¸éĻĦ": 5800,
      "åĪļåĪļ": 5801,
      "å¤ıå¤©": 5802,
      "åģıæĹº": 5803,
      "çĶµè§Ĩåī§": 5804,
      "æµªè´¹": 5805,
      "åħ½": 5806,
      "æĬĸ": 5807,
      "é«ĺåİĭ": 5808,
      "è½©": 5809,
      "å°±ä¸į": 5810,
      "çľĭçĿĢ": 5811,
      "æĢ»éĥ¨": 5812,
      "èħĬ": 5813,
      "çļĦäººçĶŁ": 5814,
      "åĽŃæŀĹ": 5815,
      "åĨ²çªģ": 5816,
      "å¤ªéĺ³èĥ½": 5817,
      "el": 5818,
      "çļĦçĽ®æłĩ": 5819,
      "çļĦä»·æł¼": 5820,
      "åľ¨åħ¨åĽ½": 5821,
      "åĴĮæľįåĬ¡": 5822,
      "ä»¥å¤ĸ": 5823,
      "çĲĨäºĭ": 5824,
      "åľ°çĤ¹": 5825,
      "åĪĨè§£": 5826,
      "ä¸ĭè½½": 5827,
      "åĪ¶èį¯": 5828,
      "ä½¿åħ¶": 5829,
      "éĺ²æ°´": 5830,
      "å®Įç¾İ": 5831,
      "èıĬ": 5832,
      "æŁ¥çľĭ": 5833,
      "è¶ħçº§": 5834,
      "æĺ¾å¾Ĺ": 5835,
      "åĲĮæĹ¶ä¹Ł": 5836,
      "è¯Ħè®º": 5837,
      "ç¥¨æĪ¿": 5838,
      "ä¸įæĥ³": 5839,
      "åİĺ": 5840,
      "æĹ¶å°ļ": 5841,
      "æĽ¹": 5842,
      "æľĪçļĦ": 5843,
      "éľī": 5844,
      "è¿ĺæ²¡æľī": 5845,
      "åįģäºĶ": 5846,
      "éĢīæīĭ": 5847,
      "æķ´æ²»": 5848,
      "åİĭç¼©": 5849,
      "æĵļ": 5850,
      "åĪĿæľŁ": 5851,
      "çĶ»éĿ¢": 5852,
      "æįŁåĿı": 5853,
      "å»ºç«ĭäºĨ": 5854,
      "è·µè¡Į": 5855,
      "ä»·åĢ¼è§Ĥ": 5856,
      "æ´¾éģ£": 5857,
      "æ²¦ä¸º": 5858,
      "åıī": 5859,
      "çİĦ": 5860,
      "è¿ĻæĹ¶": 5861,
      "åĩºåı°": 5862,
      "ç©Ĩ": 5863,
      "çĥ¤": 5864,
      "å¤ĸèµĦ": 5865,
      "ä¿¡ä»°": 5866,
      "åıĺéĿ©": 5867,
      "æ¸ħçĲĨ": 5868,
      "å¤ªå¤ļ": 5869,
      "ç¨İåĬ¡": 5870,
      "æŃ¦åĻ¨": 5871,
      "æī§æ³ķ": 5872,
      "ãĢįãĢĤ": 5873,
      "çĻ«çĹ«çĹħ": 5874,
      "åįĵè¶Ĭ": 5875,
      "ç³ĸå°¿çĹħ": 5876,
      "79": 5877,
      "ä¸įä¹ħ": 5878,
      "çĶŁåĬ¨": 5879,
      "æĶĢ": 5880,
      "æĪĳåľ¨": 5881,
      "èĤ¢": 5882,
      "åľ°ä¸Ĭ": 5883,
      "æľºç»Ħ": 5884,
      "çī¹å®ļ": 5885,
      "å¾Īå°ĳ": 5886,
      "èĪŁ": 5887,
      "èĭ¯": 5888,
      "èĢģæĿ¿": 5889,
      "åĵįåºĶ": 5890,
      "åĨĽéĺŁ": 5891,
      "æ´»åĬ¨çļĦ": 5892,
      "åıĳçĶŁäºĨ": 5893,
      "æĿ¡ä»¶ä¸ĭ": 5894,
      "æİĪäºĪ": 5895,
      "çŃĶæ¡Ī": 5896,
      "åĵ²åŃ¦": 5897,
      "ç¸½": 5898,
      "è¯ķç®¡å©´åĦ¿": 5899,
      "å¤§éĻĨ": 5900,
      "çĶ¨äºº": 5901,
      "æĪĳæĥ³": 5902,
      "ä¾¦": 5903,
      "è¿ĩäºĨ": 5904,
      "ä¸»åľº": 5905,
      "å°ıç¨ĭåºı": 5906,
      "å½ĵå¤©": 5907,
      "æĪĳä»¬å¸¦": 5908,
      "åĲįä¸º": 5909,
      "äºĮæ°§åĮĸ": 5910,
      "å·²æĪĲä¸º": 5911,
      "éĿŀæ´²": 5912,
      "ä½İæ¸©": 5913,
      "è¨ĺ": 5914,
      "ä¾¿æĺ¯": 5915,
      "å¨ľ": 5916,
      "çĸ«èĭĹ": 5917,
      "æ¶²ä½ĵ": 5918,
      "å¾ģç¨ĭ": 5919,
      "éĢłæĪĲçļĦ": 5920,
      "å¿½è§Ĩ": 5921,
      "ä¸¸": 5922,
      "æĺ¯æĪĳä»¬": 5923,
      "å¸ķ": 5924,
      "ä¸įåıĹ": 5925,
      "ä¸ªä½ĵ": 5926,
      "å¦¥": 5927,
      "åİ»æĢĿèĢĥ": 5928,
      "è§Ĥçľĭ": 5929,
      "ç»ĻäºĨ": 5930,
      "çĨ¬": 5931,
      "é¤Ĳåİħ": 5932,
      "èĩªèº«çļĦ": 5933,
      "çĶĺèĤĥ": 5934,
      "ä¾ĽåºĶéĵ¾": 5935,
      "éĢ»è¾ĳ": 5936,
      "çļĦç¬¬ä¸Ģ": 5937,
      "æĿī": 5938,
      "ä¸įå¤ļ": 5939,
      "æĪĲäºº": 5940,
      "æĦī": 5941,
      "ä½ĵéĩį": 5942,
      "å®ŀçĶ¨": 5943,
      "æĻķ": 5944,
      "çĶµæºĲ": 5945,
      "é¦Ī": 5946,
      "çĶŁäº§çº¿": 5947,
      "è¨±": 5948,
      "åıįèĢĮ": 5949,
      "å®ĮæĪĲäºĨ": 5950,
      "äº«æľī": 5951,
      "å«Įçĸĳ": 5952,
      "çļĦåıĳçĶŁ": 5953,
      "åıĥ": 5954,
      "çĶŁèĤ²": 5955,
      "åľ°åĽ¾": 5956,
      "å¥½äºĨ": 5957,
      "å¥½åĥı": 5958,
      "çĥ·": 5959,
      "æµģè¡Į": 5960,
      "ç²¾å¿ĥ": 5961,
      "èŃ·": 5962,
      "åĿļæĮģä»¥": 5963,
      "é¢ĳçİĩ": 5964,
      "æĭĽæłĩ": 5965,
      "å³¡": 5966,
      "æ¶Ĥå±Ĥ": 5967,
      "è¡£æľį": 5968,
      "ç¥ĸåĽ½": 5969,
      "ä¸Ģå¸¦ä¸Ģè·¯": 5970,
      "600": 5971,
      "app": 5972,
      "äºı": 5973,
      "äººåĴĮ": 5974,
      "ä¸įä¸Ģæł·": 5975,
      "éĢ¾": 5976,
      "åĩ¸": 5977,
      "æķ¦": 5978,
      "åľ°åŁŁ": 5979,
      "è¿ĩçļĦ": 5980,
      "åĪ¶æĪĲ": 5981,
      "èĦĨ": 5982,
      "ä¼łéĢĴ": 5983,
      "ç²¾å¯Ĩ": 5984,
      "è¥¿åįĹ": 5985,
      "èĢģåĮĸ": 5986,
      "çĪ±å¥½": 5987,
      "åİĨç¨ĭ": 5988,
      "ç¢º": 5989,
      "ç¨İæĶ¶": 5990,
      "æĲŃå»º": 5991,
      "èķ´": 5992,
      "äºĶè¡Įç¼ºä»Ģä¹Ī": 5993,
      "ä¸²": 5994,
      "çļĦåĬĽéĩı": 5995,
      "æł½": 5996,
      "åıĳæĺİ": 5997,
      "ä¸Ĭæľī": 5998,
      "å¤ļå®¶": 5999,
      "èĢĮæĪĲ": 6000,
      "ç¤¾äº¤": 6001,
      "ç²¾åĵģ": 6002,
      "åĦª": 6003,
      "çĭ¼": 6004,
      "æįŁä¼¤": 6005,
      "æĶ»åĩ»": 6006,
      "æīĩ": 6007,
      "ä¼ļå½±åĵį": 6008,
      "æŀ¢": 6009,
      "å¯¹æ¯Ķ": 6010,
      "åħ¬æĸ¤": 6011,
      "å®ŀä½ĵ": 6012,
      "å°ıåŃ©": 6013,
      "éħ¶": 6014,
      "å¤ĦçļĦ": 6015,
      "æīĭç»Ń": 6016,
      "è´Łæĭħ": 6017,
      "ç¼ºå°ĳ": 6018,
      "èĵ¬": 6019,
      "åİļåº¦": 6020,
      "çŀ¬": 6021,
      "çļĦåºĶçĶ¨": 6022,
      "çĶ¸": 6023,
      "äººå¿ĥ": 6024,
      "å¼¥": 6025,
      "èĥ½åľ¨": 6026,
      "ä½ľçī©": 6027,
      "éĥ¨éĺŁ": 6028,
      "çĹĴ": 6029,
      "æĹ¥èĩ³": 6030,
      "æ¶Ľ": 6031,
      "æĺİæĺŁ": 6032,
      "ç¾İå®¹": 6033,
      "çĹħåĽł": 6034,
      "çľĭè§ģ": 6035,
      "æµģéĢļ": 6036,
      "è¾¾æĪĲ": 6037,
      "ç¤¾ä¼ļçļĦ": 6038,
      "æĲħ": 6039,
      "åĪĿæŃ¥": 6040,
      "ç¿¼": 6041,
      "å¼ĢåıĳåĮº": 6042,
      "çĶŁæĢģæĸĩæĺİ": 6043,
      "ç¶Ń": 6044,
      "éĢĶå¾Ħ": 6045,
      "å¿ħè¦ģçļĦ": 6046,
      "æ·ĺæ±°": 6047,
      "5000": 6048,
      "çļĦåħ¨": 6049,
      "ä¸Ńåľĭ": 6050,
      "æłª": 6051,
      "æŀ£": 6052,
      "âĢĿ;": 6053,
      "è¿Ļä¹Ł": 6054,
      "çī©èģĶç½ĳ": 6055,
      "éĢļè®¯": 6056,
      "å¸¸å§Ķä¼ļ": 6057,
      "è¿ĺéľĢè¦ģ": 6058,
      "æĪĳä»¬åı¯ä»¥": 6059,
      "æĢ»é¢Ŀ": 6060,
      "æĬĢæľ¯åĪĽæĸ°": 6061,
      "åı£èħĶ": 6062,
      "èĻ¹": 6063,
      "åħīæĺİ": 6064,
      "åįİä¸º": 6065,
      "ä¾Ŀèµĸ": 6066,
      "éĴ¢æĿ¿": 6067,
      "çķĻä¸ĭ": 6068,
      "ä¸Ĭæµ·å¸Ĥ": 6069,
      "æĪĲç«ĭäºİ": 6070,
      "è«ĸ": 6071,
      "46": 6072,
      "çļĦç¤¾ä¼ļ": 6073,
      "äººä¸İ": 6074,
      "æĥ©": 6075,
      "äº§èĥ½": 6076,
      "ä¸ĭä¸ĢæŃ¥": 6077,
      "æĽ¸": 6078,
      "ä¹ĭæīĢä»¥": 6079,
      "æĹ¥åľ¨": 6080,
      "åĨħåĪĨæ³Į": 6081,
      "åħ±è®¡": 6082,
      "éĺŁåĳĺ": 6083,
      "ä¸ĩå¹³æĸ¹ç±³": 6084,
      "æīįä¼ļ": 6085,
      "æ¼Ķåĩº": 6086,
      "ç»Īç«¯": 6087,
      "åĪ°äºĨä¸Ģä¸ªæĸ°çļĦ": 6088,
      "æ¸¯åı£": 6089,
      "é²ľæĺİ": 6090,
      "éĵĿåĲĪéĩĳ": 6091,
      "ä¾µæĿĥ": 6092,
      "åħįçĸ«åĬĽ": 6093,
      "çĪ¸çĪ¸": 6094,
      "BA": 6095,
      "æľīçĤ¹": 6096,
      "ä¸Ĭä¸Ģ": 6097,
      "æĸ¹çļĦ": 6098,
      "éģ©": 6099,
      "ä½ĵè´¨": 6100,
      "æ°´åĪĨ": 6101,
      "å¸¸è§Ħ": 6102,
      "çľĭèµ·æĿ¥": 6103,
      "åıĤæķ°": 6104,
      "æī¿åĮħ": 6105,
      "æ±¡æ³¥": 6106,
      "åħļçļĦåįģä¹Ŀ": 6107,
      "æ¶¦æ»ĳ": 6108,
      "è¹Ī": 6109,
      "éĭ¼": 6110,
      "çĸ²åĬ³": 6111,
      "ro": 6112,
      "çļĦå½¢å¼ı": 6113,
      "åį»": 6114,
      "å¤§å¸Ī": 6115,
      "çĶŁæ¶¯": 6116,
      "è¦ģåľ¨": 6117,
      "èĩªåŃ¦": 6118,
      "ç»ıè´¹": 6119,
      "åľºåľ°": 6120,
      "èµĦåĬ©": 6121,
      "å°Ĩç»§ç»Ń": 6122,
      "åħ¥äºĨ": 6123,
      "éĹ´çļĦ": 6124,
      "ä¸¤æ¬¡": 6125,
      "èĬĤæĹ¥": 6126,
      "èĳĽ": 6127,
      "åĩºçİ°åľ¨": 6128,
      "ç§ĳåŃ¦å®¶": 6129,
      "èĴĭ": 6130,
      "è¾ĵåħ¥": 6131,
      "ä¼ĺç§ĢçļĦ": 6132,
      "ä¾ĽåºĶåķĨ": 6133,
      "æĸ°èĥ½æºĲæ±½è½¦": 6134,
      "41": 6135,
      "æĺ¯å¾Ī": 6136,
      "ä¸įåºĶ": 6137,
      "å¤§èĦĳ": 6138,
      "çĶŁæ®ĸ": 6139,
      "ä¸Ĭå¹´": 6140,
      "åı¯çĶ¨": 6141,
      "ä»¬çļĦ": 6142,
      "ä¹ĭä¸º": 6143
    },
    "merges": [
      [
        "ä",
        "¸"
      ],
      [
        "ã",
        "Ģ"
      ],
      [
        "ç",
        "ļ"
      ],
      [
        "çļ",
        "Ħ"
      ],
      [
        "ä",
        "º"
      ],
      [
        "ãĢ",
        "Ĥ"
      ],
      [
        "æ",
        "ľ"
      ],
      [
        "å",
        "ı"
      ],
      [
        "å",
        "ħ"
      ],
      [
        "ä",
        "»"
      ],
      [
        "å",
        "¤"
      ],
      [
        "ãĢ",
        "ģ"
      ],
      [
        "å",
        "®"
      ],
      [
        "å",
        "Ī"
      ],
      [
        "ä",
        "½"
      ],
      [
        "è",
        "¿"
      ],
      [
        "ç",
        "Ķ"
      ],
      [
        "å",
        "ľ"
      ],
      [
        "å",
        "Ĳ"
      ],
      [
        "å",
        "Ĭ"
      ],
      [
        "æ",
        "ĺ"
      ],
      [
        "ç",
        "»"
      ],
      [
        "å",
        "Ľ"
      ],
      [
        "æ",
        "ĸ"
      ],
      [
        "æ",
        "Ī"
      ],
      [
        "ä",
        "¹"
      ],
      [
        "ä",
        "¼"
      ],
      [
        "ä¸",
        "Ģ"
      ],
      [
        "å",
        "¹"
      ],
      [
        "å",
        "°"
      ],
      [
        "æĺ",
        "¯"
      ],
      [
        "è",
        "®"
      ],
      [
        "æ",
        "Ĺ"
      ],
      [
        "å",
        "Ń"
      ],
      [
        "å",
        "į"
      ],
      [
        "â",
        "Ģ"
      ],
      [
        "æľ",
        "ī"
      ],
      [
        "å",
        "·"
      ],
      [
        "åľ",
        "¨"
      ],
      [
        "è",
        "¯"
      ],
      [
        "æ",
        "Ŀ"
      ],
      [
        "é",
        "ĩ"
      ],
      [
        "äº",
        "º"
      ],
      [
        "å",
        "Į"
      ],
      [
        "å",
        "¸"
      ],
      [
        "ä¸",
        "į"
      ],
      [
        "ä¸",
        "Ń"
      ],
      [
        "å",
        "º"
      ],
      [
        "å",
        "¼"
      ],
      [
        "æ",
        "ī"
      ],
      [
        "é",
        "Ģ"
      ],
      [
        "è",
        "¡"
      ],
      [
        "å",
        "Ĵ"
      ],
      [
        "å",
        "¾"
      ],
      [
        "è",
        "Ģ"
      ],
      [
        "å",
        "Ĩ"
      ],
      [
        "å",
        "¯"
      ],
      [
        "åĴ",
        "Į"
      ],
      [
        "äº",
        "Ĩ"
      ],
      [
        "å",
        "ĩ"
      ],
      [
        "å",
        "±"
      ],
      [
        "æ",
        "Ģ"
      ],
      [
        "ĥ",
        "½"
      ],
      [
        "æ",
        "ķ"
      ],
      [
        "å¤",
        "§"
      ],
      [
        "æ",
        "°"
      ],
      [
        "ä¸",
        "º"
      ],
      [
        "æ",
        "Ĭ"
      ],
      [
        "ç",
        "Ľ"
      ],
      [
        "è",
        "´"
      ],
      [
        "ç",
        "§"
      ],
      [
        "æ",
        "ł"
      ],
      [
        "è",
        "§"
      ],
      [
        "åĽ",
        "½"
      ],
      [
        "ç",
        "ī"
      ],
      [
        "è",
        "µ"
      ],
      [
        "å",
        "¥"
      ],
      [
        "ç",
        "İ"
      ],
      [
        "ä¸",
        "ļ"
      ],
      [
        "çĶ",
        "Ł"
      ],
      [
        "è",
        "¦"
      ],
      [
        "ä»",
        "¥"
      ],
      [
        "æ",
        "Ķ"
      ],
      [
        "å",
        "¿"
      ],
      [
        "è¦",
        "ģ"
      ],
      [
        "é",
        "Ļ"
      ],
      [
        "é",
        "Ŀ"
      ],
      [
        "å¹",
        "´"
      ],
      [
        "åı",
        "ĳ"
      ],
      [
        "å",
        "İ"
      ],
      [
        "æ",
        "Ń"
      ],
      [
        "ä¼",
        "ļ"
      ],
      [
        "è",
        "ĩ"
      ],
      [
        "å",
        "½"
      ],
      [
        "ç",
        "Ĳ"
      ],
      [
        "ç",
        "Ń"
      ],
      [
        "çĶ",
        "¨"
      ],
      [
        "æ",
        "³"
      ],
      [
        "åŃ",
        "¦"
      ],
      [
        "æ",
        "²"
      ],
      [
        "ä",
        "¿"
      ],
      [
        "è",
        "ĥ½"
      ],
      [
        "ä¸",
        "Ĭ"
      ],
      [
        "ä½",
        "ľ"
      ],
      [
        "å",
        "ĳ"
      ],
      [
        "æ",
        "İ"
      ],
      [
        "é",
        "Ĺ"
      ],
      [
        "å·",
        "¥"
      ],
      [
        "ç",
        "º"
      ],
      [
        "æ",
        "µ"
      ],
      [
        "ä¸",
        "ª"
      ],
      [
        "æ",
        "ŀ"
      ],
      [
        "æĹ",
        "¶"
      ],
      [
        "æĪ",
        "Ĳ"
      ],
      [
        "âĢ",
        "ľ"
      ],
      [
        "âĢ",
        "Ŀ"
      ],
      [
        "è¡",
        "Į"
      ],
      [
        "è¿",
        "Ļ"
      ],
      [
        "å",
        "ĵ"
      ],
      [
        "åı",
        "¯"
      ],
      [
        "é",
        "¢"
      ],
      [
        "æĪ",
        "ĳ"
      ],
      [
        "åĪ",
        "°"
      ],
      [
        "å¯",
        "¹"
      ],
      [
        "åĩ",
        "º"
      ],
      [
        "æ",
        "¯"
      ],
      [
        "æ",
        "ĥ"
      ],
      [
        "è",
        "¾"
      ],
      [
        "æ",
        "Į"
      ],
      [
        "é",
        "«"
      ],
      [
        "çĲ",
        "Ĩ"
      ],
      [
        "å",
        "Ł"
      ],
      [
        "é",
        "ĺ"
      ],
      [
        "ç",
        "ľ"
      ],
      [
        "å®",
        "¶"
      ],
      [
        "äº",
        "İ"
      ],
      [
        "å",
        "ī"
      ],
      [
        "é«",
        "ĺ"
      ],
      [
        "äº",
        "§"
      ],
      [
        "æĿ",
        "¥"
      ],
      [
        "å¤",
        "ļ"
      ],
      [
        "æ",
        "±"
      ],
      [
        "çŃ",
        "ī"
      ],
      [
        "è",
        "Ĥ"
      ],
      [
        "åľ",
        "°"
      ],
      [
        "æ",
        "Ħ"
      ],
      [
        "åĮ",
        "ĸ"
      ],
      [
        "æ",
        "ĭ"
      ],
      [
        "åĪ",
        "Ĩ"
      ],
      [
        "æĸ",
        "¹"
      ],
      [
        "æĸ",
        "°"
      ],
      [
        "è",
        "½"
      ],
      [
        "é",
        "ģ"
      ],
      [
        "åĬ",
        "Ľ"
      ],
      [
        "åħ",
        "¨"
      ],
      [
        "æĢ",
        "§"
      ],
      [
        "è¿",
        "Ľ"
      ],
      [
        "èĩ",
        "ª"
      ],
      [
        "ä½",
        "ĵ"
      ],
      [
        "æ",
        "´"
      ],
      [
        "æ",
        "¸"
      ],
      [
        "ä",
        "¾"
      ],
      [
        "ç",
        "«"
      ],
      [
        "ä»",
        "¬"
      ],
      [
        "åĬ",
        "¨"
      ],
      [
        "ç»",
        "ı"
      ],
      [
        "è¿",
        "ĩ"
      ],
      [
        "åħ",
        "¬"
      ],
      [
        "å",
        "»"
      ],
      [
        "ç",
        "®"
      ],
      [
        "ä¹",
        "Ł"
      ],
      [
        "å",
        "¦"
      ],
      [
        "å®",
        "ŀ"
      ],
      [
        "ç",
        "¨"
      ],
      [
        "çİ",
        "°"
      ],
      [
        "å°",
        "±"
      ],
      [
        "é",
        "ķ"
      ],
      [
        "é",
        "ĥ"
      ],
      [
        "åĲ",
        "Ī"
      ],
      [
        "åĲ",
        "İ"
      ],
      [
        "æ",
        "¬"
      ],
      [
        "å±",
        "ķ"
      ],
      [
        "éĿ",
        "¢"
      ],
      [
        "ä¸",
        "ĭ"
      ],
      [
        "ä¸",
        "»"
      ],
      [
        "æ",
        "ı"
      ],
      [
        "å",
        "ģ"
      ],
      [
        "è",
        "ī"
      ],
      [
        "ç",
        "Ĥ"
      ],
      [
        "æ",
        "Ľ"
      ],
      [
        "é",
        "£"
      ],
      [
        "ä»",
        "ĸ"
      ],
      [
        "éĩ",
        "į"
      ],
      [
        "ç",
        "Ļ"
      ],
      [
        "åĵ",
        "ģ"
      ],
      [
        "ç",
        "½"
      ],
      [
        "å¥",
        "½"
      ],
      [
        "é",
        "¡"
      ],
      [
        "ä¸",
        "İ"
      ],
      [
        "æľ",
        "º"
      ],
      [
        "åĲ",
        "Į"
      ],
      [
        "éĥ",
        "¨"
      ],
      [
        "å¿",
        "ĥ"
      ],
      [
        "å®",
        "ļ"
      ],
      [
        "åĬ",
        "ł"
      ],
      [
        "æ°",
        "´"
      ],
      [
        "å¸",
        "Ĥ"
      ],
      [
        "å»",
        "º"
      ],
      [
        "è®",
        "¾"
      ],
      [
        "æ³",
        "ķ"
      ],
      [
        "åº",
        "¦"
      ],
      [
        "å¼",
        "Ģ"
      ],
      [
        "é",
        "Ľ"
      ],
      [
        "èĢ",
        "Į"
      ],
      [
        "ä¹",
        "ĭ"
      ],
      [
        "ç",
        "¤"
      ],
      [
        "å",
        "¢"
      ],
      [
        "æľ",
        "¬"
      ],
      [
        "è",
        "ģ"
      ],
      [
        "æ",
        "Ļ"
      ],
      [
        "åŃ",
        "Ĳ"
      ],
      [
        "åħ",
        "¶"
      ],
      [
        "ç",
        "Ĺ"
      ],
      [
        "å",
        "Ģ"
      ],
      [
        "èĢ",
        "ħ"
      ],
      [
        "è",
        "¶"
      ],
      [
        "å¾",
        "Ĺ"
      ],
      [
        "ç",
        "ĸ"
      ],
      [
        "åĪ",
        "¶"
      ],
      [
        "éĩ",
        "ı"
      ],
      [
        "éķ",
        "¿"
      ],
      [
        "2",
        "0"
      ],
      [
        "æĹ",
        "¥"
      ],
      [
        "çī",
        "©"
      ],
      [
        "è",
        "·"
      ],
      [
        "æı",
        "Ĳ"
      ],
      [
        "ç",
        "¾"
      ],
      [
        "ç",
        "¬"
      ],
      [
        "å¦",
        "Ĥ"
      ],
      [
        "è",
        "°"
      ],
      [
        "æī",
        "Ģ"
      ],
      [
        "å",
        "Ŀ"
      ],
      [
        "ç",
        "Ł"
      ],
      [
        "åı",
        "Ĭ"
      ],
      [
        "åĬ",
        "¡"
      ],
      [
        "æ",
        "¶"
      ],
      [
        "é",
        "ļ"
      ],
      [
        "äº",
        "ĭ"
      ],
      [
        "åħ",
        "³"
      ],
      [
        "åī",
        "į"
      ],
      [
        "éĢ",
        "ļ"
      ],
      [
        "å°",
        "ı"
      ],
      [
        "ä¿",
        "Ŀ"
      ],
      [
        "é",
        "ĥ½"
      ],
      [
        "æ",
        "į"
      ],
      [
        "åľ",
        "º"
      ],
      [
        "åº",
        "Ķ"
      ],
      [
        "ç",
        "ł"
      ],
      [
        "æľ",
        "Ī"
      ],
      [
        "ç§",
        "į"
      ],
      [
        "çĶ",
        "µ"
      ],
      [
        "åĨ",
        "ħ"
      ],
      [
        "ç®",
        "¡"
      ],
      [
        "æĥ",
        "ħ"
      ],
      [
        "ç",
        "Ŀ"
      ],
      [
        "ç",
        "³"
      ],
      [
        "å",
        "§"
      ],
      [
        "åĽ",
        "ł"
      ],
      [
        "èµ",
        "Ħ"
      ],
      [
        "ç",
        "ķ"
      ],
      [
        "è",
        "Ĳ"
      ],
      [
        "ç",
        "²"
      ],
      [
        "æĸ",
        "ĩ"
      ],
      [
        "ç",
        "©"
      ],
      [
        "è",
        "Ĭ"
      ],
      [
        "ç",
        "ĥ"
      ],
      [
        "åĮ",
        "º"
      ],
      [
        "ç",
        "´"
      ],
      [
        "ç",
        "Ħ"
      ],
      [
        "æľ",
        "Ģ"
      ],
      [
        "ç¨",
        "ĭ"
      ],
      [
        "å¤",
        "ĸ"
      ],
      [
        "é",
        "ħ"
      ],
      [
        "æ°",
        "ĳ"
      ],
      [
        "æĽ",
        "´"
      ],
      [
        "æķ",
        "Ļ"
      ],
      [
        "æ",
        "Ł"
      ],
      [
        "æĬ",
        "Ģ"
      ],
      [
        "å¤",
        "©"
      ],
      [
        "æľ",
        "¯"
      ],
      [
        "çĽ",
        "®"
      ],
      [
        "é",
        "ľ"
      ],
      [
        "å¹",
        "³"
      ],
      [
        "ç§",
        "ĳ"
      ],
      [
        "ä¸Ń",
        "åĽ½"
      ],
      [
        "åıĳ",
        "å±ķ"
      ],
      [
        "å°",
        "Ĩ"
      ],
      [
        "è´",
        "¨"
      ],
      [
        "ä½",
        "į"
      ],
      [
        "åħ",
        "¥"
      ],
      [
        "æľ",
        "Ł"
      ],
      [
        "éĹ",
        "´"
      ],
      [
        "æĦ",
        "ı"
      ],
      [
        "çĽ",
        "¸"
      ],
      [
        "åĳ",
        "ĺ"
      ],
      [
        "Ĥ",
        "£"
      ],
      [
        "è",
        "ĥ"
      ],
      [
        "æ¯",
        "Ķ"
      ],
      [
        "è¡",
        "¨"
      ],
      [
        "å¸",
        "¸"
      ],
      [
        "ç",
        "±"
      ],
      [
        "ç",
        "¡"
      ],
      [
        "çĤ",
        "¹"
      ],
      [
        "å·¥",
        "ä½ľ"
      ],
      [
        "çī",
        "¹"
      ],
      [
        "ä¼",
        "ģ"
      ],
      [
        "å¾",
        "Ī"
      ],
      [
        "ä»",
        "£"
      ],
      [
        "é",
        "Ķ"
      ],
      [
        "ä½",
        "¿"
      ],
      [
        "æĶ",
        "¿"
      ],
      [
        "æ",
        "·"
      ],
      [
        "è¿",
        "ĺ"
      ],
      [
        "å®",
        "ī"
      ],
      [
        "ç¬",
        "¬"
      ],
      [
        "ä¸",
        "ī"
      ],
      [
        "å¼",
        "º"
      ],
      [
        "ç³",
        "»"
      ],
      [
        "è¯",
        "´"
      ],
      [
        "éģ",
        "ĵ"
      ],
      [
        "èµ",
        "·"
      ],
      [
        "åı",
        "¸"
      ],
      [
        "å½",
        "ĵ"
      ],
      [
        "éĩ",
        "ĳ"
      ],
      [
        "æŀ",
        "ľ"
      ],
      [
        "æ´",
        "»"
      ],
      [
        "åı¯",
        "ä»¥"
      ],
      [
        "æ¬",
        "¡"
      ],
      [
        "æ²",
        "»"
      ],
      [
        "ãĢ",
        "ĭ"
      ],
      [
        "ãĢ",
        "Ĭ"
      ],
      [
        "æŃ",
        "¤"
      ],
      [
        "æ",
        "ģ"
      ],
      [
        "è",
        "Ī"
      ],
      [
        "è",
        "į"
      ],
      [
        "å¹",
        "¶"
      ],
      [
        "ä»",
        "İ"
      ],
      [
        "ç",
        "¥"
      ],
      [
        "ä¼ģ",
        "ä¸ļ"
      ],
      [
        "ä½",
        "Ĩ"
      ],
      [
        "ä¸",
        "ĵ"
      ],
      [
        "æĺ",
        "İ"
      ],
      [
        "çĿ",
        "Ģ"
      ],
      [
        "çĦ",
        "¶"
      ],
      [
        "é",
        "Ĵ"
      ],
      [
        "æĪĳ",
        "ä»¬"
      ],
      [
        "ä¿",
        "¡"
      ],
      [
        "åĲ",
        "į"
      ],
      [
        "åĲ",
        "Ħ"
      ],
      [
        "ç¾",
        "İ"
      ],
      [
        "åĪ",
        "©"
      ],
      [
        "æķ",
        "°"
      ],
      [
        "åħ¬",
        "åı¸"
      ],
      [
        "æľ",
        "į"
      ],
      [
        "æĮ",
        "ģ"
      ],
      [
        "è®",
        "¡"
      ],
      [
        "äº",
        "Ľ"
      ],
      [
        "å¼",
        "ı"
      ],
      [
        "åŁ",
        "º"
      ],
      [
        "é",
        "ĵ"
      ],
      [
        "çĹ",
        "ħ"
      ],
      [
        "æĪ",
        "ĸ"
      ],
      [
        "é£",
        "İ"
      ],
      [
        "ä¸Ģ",
        "ä¸ª"
      ],
      [
        "éĻ",
        "¢"
      ],
      [
        "ç",
        "ģ"
      ],
      [
        "è§",
        "£"
      ],
      [
        "æĹ",
        "ł"
      ],
      [
        "ä½",
        "ł"
      ],
      [
        "è",
        "¢"
      ],
      [
        "æŃ",
        "£"
      ],
      [
        "ç",
        "Ī"
      ],
      [
        "å",
        "ķ"
      ],
      [
        "é",
        "¦"
      ],
      [
        "ç",
        "¼"
      ],
      [
        "è§",
        "Ħ"
      ],
      [
        "è",
        "ĭ"
      ],
      [
        "éľ",
        "Ģ"
      ],
      [
        "å",
        "ŀ"
      ],
      [
        "æ",
        "¡"
      ],
      [
        "è",
        "£"
      ],
      [
        "èī",
        "²"
      ],
      [
        "é¡",
        "¹"
      ],
      [
        "éĢ",
        "ł"
      ],
      [
        "äº",
        "Į"
      ],
      [
        "ç»",
        "ĵ"
      ],
      [
        "åĮ",
        "»"
      ],
      [
        "åħ",
        "ļ"
      ],
      [
        "æ",
        "º"
      ],
      [
        "ç¤",
        "¾"
      ],
      [
        "èĤ",
        "²"
      ],
      [
        "ç",
        "¦"
      ],
      [
        "0",
        "0"
      ],
      [
        "ç»",
        "Ł"
      ],
      [
        "å¤",
        "Ħ"
      ],
      [
        "å",
        "ĸ"
      ],
      [
        "è",
        "º"
      ],
      [
        "å¯",
        "¼"
      ],
      [
        "é¢",
        "ĺ"
      ],
      [
        "ä»",
        "»"
      ],
      [
        "æ°",
        "Ķ"
      ],
      [
        "çľ",
        "ĭ"
      ],
      [
        "åį",
        "ģ"
      ],
      [
        "éĩ",
        "Į"
      ],
      [
        "å",
        "£"
      ],
      [
        "åĪ",
        "Ľ"
      ],
      [
        "æ±",
        "Ĥ"
      ],
      [
        "çł",
        "Ķ"
      ],
      [
        "è",
        "Ħ"
      ],
      [
        "åģ",
        "ļ"
      ],
      [
        "åħ",
        "·"
      ],
      [
        "æµ",
        "ģ"
      ],
      [
        "åħ",
        "ĥ"
      ],
      [
        "è¿",
        "Ĳ"
      ],
      [
        "æĦ",
        "Ł"
      ],
      [
        "æĥ",
        "³"
      ],
      [
        "æī",
        "ĭ"
      ],
      [
        "ç«",
        "ĭ"
      ],
      [
        "çĶ",
        "±"
      ],
      [
        "åİ",
        "»"
      ],
      [
        "è¢",
        "«"
      ],
      [
        "ç»",
        "Ħ"
      ],
      [
        "èº",
        "«"
      ],
      [
        "å¢",
        "ŀ"
      ],
      [
        "æį",
        "®"
      ],
      [
        "æķ",
        "Ī"
      ],
      [
        "æł",
        "ĩ"
      ],
      [
        "æİ",
        "¥"
      ],
      [
        "ä¹",
        "Ī"
      ],
      [
        "æ",
        "»"
      ],
      [
        "ç½",
        "ĳ"
      ],
      [
        "ä¼",
        "ł"
      ],
      [
        "è½",
        "¦"
      ],
      [
        "ç²",
        "¾"
      ],
      [
        "å·",
        "²"
      ],
      [
        "æ²",
        "¡"
      ],
      [
        "åİ",
        "Ł"
      ],
      [
        "æĢ",
        "»"
      ],
      [
        "æł",
        "·"
      ],
      [
        "è",
        "Į"
      ],
      [
        "æĸ",
        "Ļ"
      ],
      [
        "åķ",
        "Ĩ"
      ],
      [
        "äº",
        "¤"
      ],
      [
        "é",
        "ª"
      ],
      [
        "éĹ",
        "®"
      ],
      [
        "å·",
        "±"
      ],
      [
        "ä»",
        "¶"
      ],
      [
        "åĲ",
        "ĳ"
      ],
      [
        "éĹ",
        "¨"
      ],
      [
        "åı",
        "Ĺ"
      ],
      [
        "å½",
        "¢"
      ],
      [
        "å½",
        "±"
      ],
      [
        "æł",
        "¡"
      ],
      [
        "é¢",
        "Ĩ"
      ],
      [
        "æĬĢ",
        "æľ¯"
      ],
      [
        "è",
        "¥"
      ],
      [
        "çĻ",
        "½"
      ],
      [
        "è¥",
        "¿"
      ],
      [
        "å¤",
        "ĩ"
      ],
      [
        "æł",
        "¼"
      ],
      [
        "è·",
        "¯"
      ],
      [
        "çĲ",
        "ĥ"
      ],
      [
        "èĩª",
        "å·±"
      ],
      [
        "çİ",
        "¯"
      ],
      [
        "æµ",
        "·"
      ],
      [
        "åŀ",
        "ĭ"
      ],
      [
        "çľ",
        "ģ"
      ],
      [
        "åħ",
        "±"
      ],
      [
        "ç®¡",
        "çĲĨ"
      ],
      [
        "çº",
        "§"
      ],
      [
        "é",
        "»"
      ],
      [
        "ä¸",
        "¤"
      ],
      [
        "éĽ",
        "Ĩ"
      ],
      [
        "æĶ",
        "¹"
      ],
      [
        "æ",
        "£"
      ],
      [
        "åı",
        "ĺ"
      ],
      [
        "ç±",
        "»"
      ],
      [
        "èģ",
        "Ķ"
      ],
      [
        "é",
        "©"
      ],
      [
        "é",
        "Ĥ£"
      ],
      [
        "æİ",
        "¨"
      ],
      [
        "çŁ",
        "¥"
      ],
      [
        "ä¼",
        "ĺ"
      ],
      [
        "å°",
        "ĳ"
      ],
      [
        "æľį",
        "åĬ¡"
      ],
      [
        "éĺ",
        "Ł"
      ],
      [
        "ä¸",
        "ĩ"
      ],
      [
        "éĺ",
        "²"
      ],
      [
        "æ·",
        "±"
      ],
      [
        "æĶ",
        "¶"
      ],
      [
        "è¿Ľ",
        "è¡Į"
      ],
      [
        "å±",
        "±"
      ],
      [
        "åĽ½",
        "å®¶"
      ],
      [
        "åį",
        "ķ"
      ],
      [
        "è",
        "İ"
      ],
      [
        "è°",
        "ĥ"
      ],
      [
        "èĢ",
        "ģ"
      ],
      [
        "èĩ",
        "³"
      ],
      [
        "åħ",
        "Ī"
      ],
      [
        "åı",
        "£"
      ],
      [
        "æĬ",
        "¥"
      ],
      [
        "å¹",
        "¿"
      ],
      [
        "é£",
        "Ł"
      ],
      [
        "å",
        "Ļ"
      ],
      [
        "æĶ",
        "¾"
      ],
      [
        "è¾",
        "ĥ"
      ],
      [
        "äº§",
        "åĵģ"
      ],
      [
        "åı",
        "ª"
      ],
      [
        "æĸ",
        "½"
      ],
      [
        "æ",
        "®"
      ],
      [
        "è",
        "Ļ"
      ],
      [
        "çĸ",
        "Ĺ"
      ],
      [
        "æ",
        "¢"
      ],
      [
        "ä¸",
        "ľ"
      ],
      [
        "åı",
        "ĸ"
      ],
      [
        "ç¤",
        "º"
      ],
      [
        "è®",
        "°"
      ],
      [
        "æŀ",
        "Ħ"
      ],
      [
        "ä¾",
        "Ľ"
      ],
      [
        "å¸",
        "Ī"
      ],
      [
        "è¾",
        "¾"
      ],
      [
        "ç¤¾",
        "ä¼ļ"
      ],
      [
        "çĥ",
        "Ń"
      ],
      [
        "ä¹",
        "¦"
      ],
      [
        "åŁ",
        "İ"
      ],
      [
        "èĲ",
        "¥"
      ],
      [
        "å®",
        "Į"
      ],
      [
        "ä¸",
        "ĸ"
      ],
      [
        "æĮ",
        "ĩ"
      ],
      [
        "èµ",
        "Ľ"
      ],
      [
        "æ³",
        "¨"
      ],
      [
        "æº",
        "Ĳ"
      ],
      [
        "è®",
        "©"
      ],
      [
        "åį",
        "Ĺ"
      ],
      [
        "æ",
        "¨"
      ],
      [
        "è®",
        "¤"
      ],
      [
        "åĮ",
        "Ĺ"
      ],
      [
        "çº",
        "¿"
      ],
      [
        "èĢ",
        "ĥ"
      ],
      [
        "éĢ",
        "ī"
      ],
      [
        "åĻ",
        "¨"
      ],
      [
        "å»º",
        "è®¾"
      ],
      [
        "äº",
        "Ķ"
      ],
      [
        "ä¹",
        "ł"
      ],
      [
        "è¿",
        "ĳ"
      ],
      [
        "å®",
        "¹"
      ],
      [
        "æī",
        "į"
      ],
      [
        "æ",
        "¼"
      ],
      [
        "åĽ",
        "¢"
      ],
      [
        "æī",
        "ĵ"
      ],
      [
        "èĬ",
        "Ĥ"
      ],
      [
        "è£",
        "ħ"
      ],
      [
        "ç´",
        "ł"
      ],
      [
        "éĿ",
        "ŀ"
      ],
      [
        "ç",
        "Ĭ"
      ],
      [
        "æĿ",
        "¡"
      ],
      [
        "å¸",
        "¦"
      ],
      [
        "åħ",
        "ī"
      ],
      [
        "åĪ",
        "«"
      ],
      [
        "çķ",
        "Į"
      ],
      [
        "æĪ",
        "ĺ"
      ],
      [
        "ç¥",
        "ŀ"
      ],
      [
        "ä»",
        "·"
      ],
      [
        "åĨ",
        "³"
      ],
      [
        "å¢",
        "ĥ"
      ],
      [
        "å¥",
        "³"
      ],
      [
        "æĺ",
        "ĵ"
      ],
      [
        "ç¡",
        "®"
      ],
      [
        "è",
        "±"
      ],
      [
        "åĽ",
        "Ľ"
      ],
      [
        "æ¸",
        "ħ"
      ],
      [
        "å§",
        "Ķ"
      ],
      [
        "åĬ",
        "Ł"
      ],
      [
        "æķ",
        "´"
      ],
      [
        "åĩ",
        "Ĩ"
      ],
      [
        "å±",
        "Ģ"
      ],
      [
        "åı",
        "°"
      ],
      [
        "æ¯",
        "ı"
      ],
      [
        "éĹ®",
        "é¢ĺ"
      ],
      [
        "æ²¡",
        "æľī"
      ],
      [
        "ä½",
        "İ"
      ],
      [
        "å",
        "Ķ"
      ],
      [
        "è¯",
        "ģ"
      ],
      [
        "æµ",
        "İ"
      ],
      [
        "åĽ",
        "ŀ"
      ],
      [
        "æĢ",
        "Ŀ"
      ],
      [
        "ä¹",
        "ī"
      ],
      [
        "æĬ",
        "¤"
      ],
      [
        "çĽ",
        "´"
      ],
      [
        "å",
        "ĭ"
      ],
      [
        "å",
        "²"
      ],
      [
        "è",
        "ħ"
      ],
      [
        "20",
        "1"
      ],
      [
        "æĶ",
        "¯"
      ],
      [
        "æŃ",
        "¥"
      ],
      [
        "çľ",
        "Ł"
      ],
      [
        "è§",
        "Ĩ"
      ],
      [
        "è§",
        "Ĥ"
      ],
      [
        "ç»",
        "Ļ"
      ],
      [
        "ç©",
        "¶"
      ],
      [
        "åħ",
        "»"
      ],
      [
        "éľĢ",
        "è¦ģ"
      ],
      [
        "å®",
        "ĥ"
      ],
      [
        "éĻ",
        "ħ"
      ],
      [
        "ç",
        "ħ"
      ],
      [
        "ç©",
        "º"
      ],
      [
        "æĬ",
        "Ĭ"
      ],
      [
        "ä½¿",
        "çĶ¨"
      ],
      [
        "æĪ",
        "·"
      ],
      [
        "æĬ",
        "ķ"
      ],
      [
        "ç»",
        "´"
      ],
      [
        "å¼",
        "ķ"
      ],
      [
        "æ¶",
        "Ī"
      ],
      [
        "åĮ",
        "ħ"
      ],
      [
        "çĶŁ",
        "äº§"
      ],
      [
        "åĬ",
        "ŀ"
      ],
      [
        "æĿ",
        "Ĳ"
      ],
      [
        "åĬ",
        "©"
      ],
      [
        "ç»ı",
        "æµİ"
      ],
      [
        "é",
        "¥"
      ],
      [
        "æģ",
        "¯"
      ],
      [
        "å¤",
        "´"
      ],
      [
        "èį",
        "¯"
      ],
      [
        "å®",
        "¢"
      ],
      [
        "æķĻ",
        "èĤ²"
      ],
      [
        "åĨ",
        "į"
      ],
      [
        "ç§",
        "¯"
      ],
      [
        "éĢļ",
        "è¿ĩ"
      ],
      [
        "è",
        "¨"
      ],
      [
        "å¸Ĥ",
        "åľº"
      ],
      [
        "è¯",
        "¥"
      ],
      [
        "å¿",
        "«"
      ],
      [
        "å¸",
        "ĥ"
      ],
      [
        "è´",
        "¹"
      ],
      [
        "çİ",
        "ĩ"
      ],
      [
        "èģ",
        "Į"
      ],
      [
        "è®",
        "®"
      ],
      [
        "å°±",
        "æĺ¯"
      ],
      [
        "è",
        "ı"
      ],
      [
        "ä»",
        "Ĭ"
      ],
      [
        "åı",
        "Ĥ"
      ],
      [
        "è½",
        "¬"
      ],
      [
        "æł",
        "¹"
      ],
      [
        "éĩį",
        "è¦ģ"
      ],
      [
        "å¤",
        "į"
      ],
      [
        "åį",
        "ĩ"
      ],
      [
        "Ġ",
        ","
      ],
      [
        "æ",
        "Ĥ£"
      ],
      [
        "èĩ",
        "´"
      ],
      [
        "æ",
        "Ĥ"
      ],
      [
        "èī",
        "º"
      ],
      [
        "ä¸ĵ",
        "ä¸ļ"
      ],
      [
        "æĢ",
        "ģ"
      ],
      [
        "è®",
        "º"
      ],
      [
        "éª",
        "Į"
      ],
      [
        "éĢ",
        "Ł"
      ],
      [
        "çĶŁ",
        "æ´»"
      ],
      [
        "åĳ",
        "½"
      ],
      [
        "çĪ",
        "±"
      ],
      [
        "åį",
        "İ"
      ],
      [
        "çłĶ",
        "ç©¶"
      ],
      [
        "å",
        "Ħ"
      ],
      [
        "èĬ",
        "±"
      ],
      [
        "è§",
        "ģ"
      ],
      [
        "è¶",
        "Ĭ"
      ],
      [
        "æŁ",
        "¥"
      ],
      [
        "åĿ",
        "ļ"
      ],
      [
        "è¯",
        "Ĩ"
      ],
      [
        "åĵ",
        "į"
      ],
      [
        "æĿ",
        "ĥ"
      ],
      [
        "æĸ",
        "Ń"
      ],
      [
        "åİ",
        "Ĩ"
      ],
      [
        "ç»",
        "Ń"
      ],
      [
        "é¡¹",
        "çĽ®"
      ],
      [
        "æĸ",
        "¯"
      ],
      [
        "ç",
        "ı"
      ],
      [
        "æĹ¶",
        "éĹ´"
      ],
      [
        "æŀ",
        "ģ"
      ],
      [
        "å¦Ĥ",
        "æŀľ"
      ],
      [
        "ä¸»",
        "è¦ģ"
      ],
      [
        "åı",
        "į"
      ],
      [
        "æİ",
        "§"
      ],
      [
        "éĻ",
        "Ĳ"
      ],
      [
        "æ¸",
        "¸"
      ],
      [
        "1",
        "0"
      ],
      [
        "å¿",
        "ħ"
      ],
      [
        "è¯",
        "Ŀ"
      ],
      [
        "åģ",
        "¥"
      ],
      [
        "è",
        "ĳ"
      ],
      [
        "åĨ",
        "µ"
      ],
      [
        "é",
        "Ł"
      ],
      [
        "åŃ",
        "Ĺ"
      ],
      [
        "æ¸",
        "©"
      ],
      [
        "è¶",
        "ħ"
      ],
      [
        "ç",
        "¢"
      ],
      [
        "æ£",
        "Ģ"
      ],
      [
        "è´",
        "£"
      ],
      [
        "è¶",
        "³"
      ],
      [
        "æ",
        "¹"
      ],
      [
        "ä»ĸ",
        "ä»¬"
      ],
      [
        "å¹",
        "²"
      ],
      [
        "æ¨",
        "¡"
      ],
      [
        "æ",
        "ħ"
      ],
      [
        "å¾",
        "·"
      ],
      [
        "ç",
        "ĭ"
      ],
      [
        "ä¸",
        "Ķ"
      ],
      [
        "é¦",
        "ĸ"
      ],
      [
        "å",
        "¡"
      ],
      [
        "å·",
        "ŀ"
      ],
      [
        "å®ī",
        "åħ¨"
      ],
      [
        "åĨ",
        "Ľ"
      ],
      [
        "éĩ",
        "ĩ"
      ],
      [
        "åħ",
        "ĭ"
      ],
      [
        "ä½",
        "ķ"
      ],
      [
        "èĮ",
        "ĥ"
      ],
      [
        "èİ",
        "·"
      ],
      [
        "çļĦ",
        "äºº"
      ],
      [
        "æĸĩ",
        "åĮĸ"
      ],
      [
        "æĸ¹",
        "éĿ¢"
      ],
      [
        "åİ",
        "ĭ"
      ],
      [
        "ä»",
        "Ģ"
      ],
      [
        "éĢ",
        "Ĥ"
      ],
      [
        "ç",
        "ª"
      ],
      [
        "è¯",
        "ķ"
      ],
      [
        "å·¥",
        "ç¨ĭ"
      ],
      [
        "æ±",
        "Ł"
      ],
      [
        "åŁ",
        "Ł"
      ],
      [
        "åĪ",
        "Ļ"
      ],
      [
        "å§",
        "ĭ"
      ],
      [
        "éļ",
        "¾"
      ],
      [
        "æİ",
        "Ĵ"
      ],
      [
        "âĢ",
        "Ķ"
      ],
      [
        "ç§",
        "°"
      ],
      [
        "åı",
        "²"
      ],
      [
        "ç»",
        "ĩ"
      ],
      [
        "è",
        "ŀ"
      ],
      [
        "åı",
        "Ī"
      ],
      [
        "çļ",
        "®"
      ],
      [
        "åº",
        "·"
      ],
      [
        "åĢ",
        "¼"
      ],
      [
        "æĪ",
        "¿"
      ],
      [
        "éĻ",
        "¤"
      ],
      [
        "éħ",
        "į"
      ],
      [
        "æ²»",
        "çĸĹ"
      ],
      [
        "æ¡",
        "Ī"
      ],
      [
        "æĺ",
        "¾"
      ],
      [
        "åĦ",
        "¿"
      ],
      [
        "ä¹",
        "Ĳ"
      ],
      [
        "æµ",
        "ĭ"
      ],
      [
        "æľ",
        "ª"
      ],
      [
        "ä¼",
        "Ĺ"
      ],
      [
        "çī",
        "ĩ"
      ],
      [
        "åĳ",
        "Ĭ"
      ],
      [
        "çĬ",
        "¶"
      ],
      [
        "åĬ",
        "¿"
      ],
      [
        "1",
        "9"
      ],
      [
        "å¥",
        "¹"
      ],
      [
        "âĢĿ",
        ","
      ],
      [
        "åı¯",
        "èĥ½"
      ],
      [
        "åĢ",
        "Ļ"
      ],
      [
        "çģ",
        "«"
      ],
      [
        "æıĲ",
        "ä¾Ľ"
      ],
      [
        "æ²",
        "¹"
      ],
      [
        "åĳ",
        "¨"
      ],
      [
        "å½±",
        "åĵį"
      ],
      [
        "ä»Ģ",
        "ä¹Ī"
      ],
      [
        "äºº",
        "æ°ĳ"
      ],
      [
        "ç±",
        "³"
      ],
      [
        "ä¸",
        "¥"
      ],
      [
        "åĨ",
        "ľ"
      ],
      [
        "åħ·",
        "æľī"
      ],
      [
        "åĪ",
        "Ĵ"
      ],
      [
        "ä¸ĸ",
        "çķĮ"
      ],
      [
        "æľ",
        "Ľ"
      ],
      [
        "é©",
        "¬"
      ],
      [
        "åŃ",
        "ĺ"
      ],
      [
        "åŁ",
        "¹"
      ],
      [
        "è®¾",
        "è®¡"
      ],
      [
        "è¿Ļ",
        "ä¸ª"
      ],
      [
        "äº",
        "¬"
      ],
      [
        "ä¾",
        "¿"
      ],
      [
        "èĲ",
        "½"
      ],
      [
        "è´¨",
        "éĩı"
      ],
      [
        "è¡Į",
        "ä¸ļ"
      ],
      [
        "è¦ģ",
        "æ±Ĥ"
      ],
      [
        "åĪ",
        "ĩ"
      ],
      [
        "ç«",
        "Ļ"
      ],
      [
        "ç³»",
        "ç»Ł"
      ],
      [
        "åĲĮ",
        "æĹ¶"
      ],
      [
        "ç»",
        "Ĩ"
      ],
      [
        "è¡",
        "Ģ"
      ],
      [
        "æĥħ",
        "åĨµ"
      ],
      [
        "å¥½",
        "çļĦ"
      ],
      [
        "çİ¯",
        "å¢ĥ"
      ],
      [
        "åĽł",
        "ä¸º"
      ],
      [
        "å±",
        "Ĥ"
      ],
      [
        "éĿ",
        "Ĵ"
      ],
      [
        "æĿ",
        "¿"
      ],
      [
        "åľ",
        "Ł"
      ],
      [
        "æ",
        "ļ"
      ],
      [
        "åį",
        "ı"
      ],
      [
        "å¼",
        "ł"
      ],
      [
        "è®¾",
        "å¤ĩ"
      ],
      [
        "å£",
        "«"
      ],
      [
        "ç",
        "Į"
      ],
      [
        "æ",
        "Ĵ"
      ],
      [
        "ç¦",
        "»"
      ],
      [
        "èµ",
        "°"
      ],
      [
        "åĩ",
        "ł"
      ],
      [
        "è±",
        "¡"
      ],
      [
        "å±",
        "ŀ"
      ],
      [
        "äº§",
        "ä¸ļ"
      ],
      [
        "åŃ",
        "©"
      ],
      [
        "åį",
        "³"
      ],
      [
        "èĥ½",
        "åĬĽ"
      ],
      [
        "å°",
        "Ķ"
      ],
      [
        "å¯",
        "Į"
      ],
      [
        "çº",
        "¦"
      ],
      [
        "éļ",
        "ı"
      ],
      [
        "æīĢ",
        "ä»¥"
      ],
      [
        "æ»",
        "¡"
      ],
      [
        "å",
        "ĥ"
      ],
      [
        "çİ",
        "ĭ"
      ],
      [
        "ãĢĤ",
        "âĢĿ"
      ],
      [
        "çº",
        "¢"
      ],
      [
        "ä»¥",
        "åıĬ"
      ],
      [
        "çŁ",
        "³"
      ],
      [
        "éĻ",
        "į"
      ],
      [
        "ç»Ħ",
        "ç»ĩ"
      ],
      [
        "ä»",
        "ħ"
      ],
      [
        "åħ",
        "ħ"
      ],
      [
        "ä¸Ń",
        "çļĦ"
      ],
      [
        "æĤ£",
        "èĢħ"
      ],
      [
        "æ®",
        "µ"
      ],
      [
        "èŀ",
        "į"
      ],
      [
        "é",
        "¾"
      ],
      [
        "ä¾",
        "ĭ"
      ],
      [
        "å®",
        "¤"
      ],
      [
        "å¤",
        "ª"
      ],
      [
        "æĻ",
        "¯"
      ],
      [
        "æ¼",
        "Ķ"
      ],
      [
        "å¾",
        "Ģ"
      ],
      [
        "åĪĽ",
        "æĸ°"
      ],
      [
        "æĺ¯",
        "ä¸Ģ"
      ],
      [
        "éĶ",
        "Ģ"
      ],
      [
        "åŃ¦",
        "çĶŁ"
      ],
      [
        "æŀ",
        "Ĺ"
      ],
      [
        "é¢",
        "Ħ"
      ],
      [
        "èī",
        "¯"
      ],
      [
        "é",
        "Ĥ"
      ],
      [
        "æıĲ",
        "é«ĺ"
      ],
      [
        "å",
        "¨"
      ],
      [
        "æ²",
        "³"
      ],
      [
        "æ´»",
        "åĬ¨"
      ],
      [
        "æ",
        "ĳ"
      ],
      [
        "å¤",
        "±"
      ],
      [
        "çħ",
        "§"
      ],
      [
        "çī",
        "Į"
      ],
      [
        "çĻ",
        "¾"
      ],
      [
        "æĿ",
        "İ"
      ],
      [
        "ä½ľ",
        "ä¸º"
      ],
      [
        "ç½",
        "®"
      ],
      [
        "çĽ",
        "Ĭ"
      ],
      [
        "åĸ",
        "Ħ"
      ],
      [
        "äº",
        "¿"
      ],
      [
        "å¤§",
        "çļĦ"
      ],
      [
        "åĪ",
        "Ĺ"
      ],
      [
        "åĽ",
        "¾"
      ],
      [
        "äºº",
        "çļĦ"
      ],
      [
        "æī",
        "¿"
      ],
      [
        "éĿ",
        "©"
      ],
      [
        "æł",
        "¸"
      ],
      [
        "æ",
        "¥"
      ],
      [
        "ä¸Ń",
        "å¿ĥ"
      ],
      [
        "æ",
        "¿"
      ],
      [
        "åº",
        "ľ"
      ],
      [
        "çĽ",
        "ĳ"
      ],
      [
        "æ",
        "ĵ"
      ],
      [
        "åĽ",
        "Ń"
      ],
      [
        "è®",
        "¸"
      ],
      [
        "ä¿¡",
        "æģ¯"
      ],
      [
        "åŃ¦",
        "ä¹ł"
      ],
      [
        "çŃ",
        "ĸ"
      ],
      [
        "æĿ",
        "ĳ"
      ],
      [
        "äºº",
        "åĳĺ"
      ],
      [
        "åĽ½",
        "éĻħ"
      ],
      [
        "å¾Ī",
        "å¤ļ"
      ],
      [
        "ä¸į",
        "åĲĮ"
      ],
      [
        "ä¸Ģ",
        "äºĽ"
      ],
      [
        "åĩ",
        "ı"
      ],
      [
        "ä½ľ",
        "çĶ¨"
      ],
      [
        "è´",
        "Ł"
      ],
      [
        "æĪĲ",
        "ä¸º"
      ],
      [
        "è¯",
        "Ħ"
      ],
      [
        "ä¾",
        "Ŀ"
      ],
      [
        "äº",
        "ļ"
      ],
      [
        "æ",
        "Ĳ"
      ],
      [
        "äº",
        "ī"
      ],
      [
        "ç²¾",
        "ç¥ŀ"
      ],
      [
        "æĹ",
        "©"
      ],
      [
        "è¨",
        "Ģ"
      ],
      [
        "å¤Ħ",
        "çĲĨ"
      ],
      [
        "åħ",
        "į"
      ],
      [
        "å¤",
        "Ł"
      ],
      [
        "å¿",
        "Ĺ"
      ],
      [
        "åı",
        "ĭ"
      ],
      [
        "åĽ",
        "´"
      ],
      [
        "ä½",
        "ı"
      ],
      [
        "å",
        "ł"
      ],
      [
        "ç®",
        "Ĺ"
      ],
      [
        "åĲ",
        "«"
      ],
      [
        "éĻ",
        "©"
      ],
      [
        "è¿Ļ",
        "æł·"
      ],
      [
        "éĺ",
        "³"
      ],
      [
        "æĻ",
        "º"
      ],
      [
        "å¿",
        "µ"
      ],
      [
        "æĭ",
        "ī"
      ],
      [
        "è¿",
        "ŀ"
      ],
      [
        "ä¿",
        "®"
      ],
      [
        "èĤ",
        "¡"
      ],
      [
        "ä¹Ł",
        "æĺ¯"
      ],
      [
        "åĲ",
        "ĥ"
      ],
      [
        "å¯",
        "Ĩ"
      ],
      [
        "éħ",
        "Ĵ"
      ],
      [
        "åı",
        "·"
      ],
      [
        "åŃ¦",
        "æł¡"
      ],
      [
        "ç»",
        "Ī"
      ],
      [
        "åŁİ",
        "å¸Ĥ"
      ],
      [
        "è¿Ļ",
        "äºĽ"
      ],
      [
        "åĲĪ",
        "ä½ľ"
      ],
      [
        "åı",
        "¤"
      ],
      [
        "éĿŀ",
        "å¸¸"
      ],
      [
        "æĭ",
        "©"
      ],
      [
        "ç¾",
        "¤"
      ],
      [
        "é»",
        "Ħ"
      ],
      [
        "å·²",
        "ç»ı"
      ],
      [
        "è¯",
        "·"
      ],
      [
        "æĶ¿",
        "åºľ"
      ],
      [
        "ç¬¬",
        "ä¸Ģ"
      ],
      [
        "è§",
        "Ĵ"
      ],
      [
        "å¯¹",
        "äºİ"
      ],
      [
        "ç",
        "Ĩ"
      ],
      [
        "åı",
        "Į"
      ],
      [
        "è¿",
        "ľ"
      ],
      [
        "æĮ",
        "ī"
      ],
      [
        "åħ",
        "´"
      ],
      [
        "çļĦ",
        "ä¸Ģ"
      ],
      [
        "äº",
        "Ĵ"
      ],
      [
        "å¾",
        "ĭ"
      ],
      [
        "åŃ©",
        "åŃĲ"
      ],
      [
        "å¤§",
        "åŃ¦"
      ],
      [
        "èĪ",
        "¬"
      ],
      [
        "åģ¥",
        "åº·"
      ],
      [
        "åĩº",
        "çİ°"
      ],
      [
        "åĿ",
        "ĩ"
      ],
      [
        "ä¸Ģ",
        "å®ļ"
      ],
      [
        "å¾",
        "®"
      ],
      [
        "æ¬",
        "¾"
      ],
      [
        "åĥ",
        "ı"
      ],
      [
        "æľ",
        "¨"
      ],
      [
        "åĲ",
        "¸"
      ],
      [
        "å®ŀ",
        "çİ°"
      ],
      [
        "æ¿",
        "Ģ"
      ],
      [
        "âĢĿ",
        "ãĢĤ"
      ],
      [
        "æĻ",
        "®"
      ],
      [
        "è¿ĩ",
        "ç¨ĭ"
      ],
      [
        "è®",
        "²"
      ],
      [
        "æĹ¶",
        "åĢĻ"
      ],
      [
        "éĴ",
        "¢"
      ],
      [
        "éĢī",
        "æĭ©"
      ],
      [
        "æĹ",
        "ı"
      ],
      [
        "ç§ĳ",
        "æĬĢ"
      ],
      [
        "ä»",
        "½"
      ],
      [
        "è",
        "ª"
      ],
      [
        "ç¦",
        "ı"
      ],
      [
        "è§",
        "ī"
      ],
      [
        "ä¸į",
        "æĺ¯"
      ],
      [
        "çĽ¸",
        "åħ³"
      ],
      [
        "æķ",
        "ħ"
      ],
      [
        "è´",
        "¢"
      ],
      [
        "éħ",
        "¸"
      ],
      [
        "è",
        "Ń"
      ],
      [
        "åĪ",
        "Ŀ"
      ],
      [
        "èĩªå·±",
        "çļĦ"
      ],
      [
        "åħ¶",
        "ä»ĸ"
      ],
      [
        "çĹ",
        "ĩ"
      ],
      [
        "å®",
        "³"
      ],
      [
        "ç§ĳ",
        "åŃ¦"
      ],
      [
        "åħ¨",
        "åĽ½"
      ],
      [
        "æĬķ",
        "èµĦ"
      ],
      [
        "æĿĲ",
        "æĸĻ"
      ],
      [
        "å¤§",
        "å®¶"
      ],
      [
        "ä½Ĩ",
        "æĺ¯"
      ],
      [
        "æł¹",
        "æį®"
      ],
      [
        "è½",
        "»"
      ],
      [
        "åĽł",
        "æŃ¤"
      ],
      [
        "åİ",
        "¿"
      ],
      [
        "éĵ",
        "¶"
      ],
      [
        "èĭ",
        "±"
      ],
      [
        "çĶ",
        "»"
      ],
      [
        "åŁº",
        "ç¡"
      ],
      [
        "1",
        "2"
      ],
      [
        "åŁºç¡",
        "Ģ"
      ],
      [
        "çĽ®",
        "åīį"
      ],
      [
        "å",
        "Ĥ"
      ],
      [
        "åĳ",
        "³"
      ],
      [
        "æī",
        "¹"
      ],
      [
        "ä¸",
        "¾"
      ],
      [
        "è®",
        "Ń"
      ],
      [
        "åıĳ",
        "çĶŁ"
      ],
      [
        "ä»",
        "ĭ"
      ],
      [
        "åħ",
        "«"
      ],
      [
        "è¯",
        "Ń"
      ],
      [
        "å±",
        "ħ"
      ],
      [
        "éĥ¨",
        "åĪĨ"
      ],
      [
        "Ġ",
        "ãĢĤ"
      ],
      [
        "å¸",
        "Į"
      ],
      [
        "åī",
        "¯"
      ],
      [
        "æĸ¹",
        "æ³ķ"
      ],
      [
        "åŃ",
        "£"
      ],
      [
        "çľ",
        "¼"
      ],
      [
        "æŁ",
        "ĵ"
      ],
      [
        "é¡",
        "»"
      ],
      [
        "åĶ",
        "®"
      ],
      [
        "ä¸į",
        "æĸŃ"
      ],
      [
        "äº",
        "²"
      ],
      [
        "åĪ°",
        "äºĨ"
      ],
      [
        "è¡¨",
        "ç¤º"
      ],
      [
        "éĽĨ",
        "åĽ¢"
      ],
      [
        "å®",
        "Ŀ"
      ],
      [
        "çļĦ",
        "æĺ¯"
      ],
      [
        "æĸ¹",
        "å¼ı"
      ],
      [
        "ç",
        "ĵ"
      ],
      [
        "åħ¶",
        "ä¸Ń"
      ],
      [
        "æŃ",
        "¢"
      ],
      [
        "çĸ",
        "«"
      ],
      [
        "åİ",
        "Ĥ"
      ],
      [
        "ä¸į",
        "èĥ½"
      ],
      [
        "åį",
        "«"
      ],
      [
        "éĵ",
        "ģ"
      ],
      [
        "ä¸Ģ",
        "èĪ¬"
      ],
      [
        "è",
        "Ĵ"
      ],
      [
        "å°",
        "½"
      ],
      [
        "çŃ",
        "ĳ"
      ],
      [
        "ä»¥",
        "ä¸Ĭ"
      ],
      [
        "çĶ",
        "·"
      ],
      [
        "åī",
        "Ĥ"
      ],
      [
        "æĬ",
        "Ĺ"
      ],
      [
        "å®",
        "ĺ"
      ],
      [
        "æ",
        "¤"
      ],
      [
        "ç¨",
        "³"
      ],
      [
        "åİĨ",
        "åı²"
      ],
      [
        "æľī",
        "éĻĲ"
      ],
      [
        "åº",
        "ķ"
      ],
      [
        "åį",
        "Ĭ"
      ],
      [
        "ä¸»",
        "ä¹ī"
      ],
      [
        "æłĩ",
        "åĩĨ"
      ],
      [
        "æĭ",
        "¬"
      ],
      [
        "å¼Ģ",
        "å§ĭ"
      ],
      [
        "é¦",
        "Ļ"
      ],
      [
        "åħ¨",
        "éĿ¢"
      ],
      [
        "é",
        "²"
      ],
      [
        "è¾",
        "¹"
      ],
      [
        "éĥ½",
        "æĺ¯"
      ],
      [
        "å¥",
        "ĸ"
      ],
      [
        "1",
        "1"
      ],
      [
        "éŁ",
        "³"
      ],
      [
        "åĬŁ",
        "èĥ½"
      ],
      [
        "åĮ»",
        "éĻ¢"
      ],
      [
        "å",
        "©"
      ],
      [
        "çı",
        "Ń"
      ],
      [
        "èĥ½",
        "å¤Ł"
      ],
      [
        "è",
        "Ĩ"
      ],
      [
        "éļ",
        "ľ"
      ],
      [
        "ç¼",
        "º"
      ],
      [
        "ç®",
        "Ģ"
      ],
      [
        "å®",
        "¡"
      ],
      [
        "åºĶ",
        "çĶ¨"
      ],
      [
        "çł",
        "´"
      ],
      [
        "åįķ",
        "ä½į"
      ],
      [
        "åĸ",
        "ľ"
      ],
      [
        "çª",
        "ģ"
      ],
      [
        "20",
        "0"
      ],
      [
        "ç",
        "£"
      ],
      [
        "è¿Ļ",
        "ç§į"
      ],
      [
        "å®",
        "£"
      ],
      [
        "çº",
        "ª"
      ],
      [
        "èµĦ",
        "æºĲ"
      ],
      [
        "åį",
        "°"
      ],
      [
        "åĮĹ",
        "äº¬"
      ],
      [
        "èİ·",
        "å¾Ĺ"
      ],
      [
        "å£",
        "°"
      ],
      [
        "1",
        "5"
      ],
      [
        "åĮħ",
        "æĭ¬"
      ],
      [
        "ç",
        "ĩ"
      ],
      [
        "æ±",
        "½"
      ],
      [
        "æŀ",
        "Ĳ"
      ],
      [
        "æķ°",
        "æį®"
      ],
      [
        "éĥ¨",
        "éĹ¨"
      ],
      [
        "ä¿",
        "ĥ"
      ],
      [
        "çķ",
        "Ļ"
      ],
      [
        "çİ°",
        "åľ¨"
      ],
      [
        "çķ",
        "¥"
      ],
      [
        "æĪĸ",
        "èĢħ"
      ],
      [
        "çĻ½",
        "çĻ"
      ],
      [
        "ç¨",
        "İ"
      ],
      [
        "è¾",
        "ĵ"
      ],
      [
        "æľº",
        "æŀĦ"
      ],
      [
        "åį",
        "´"
      ],
      [
        "æ±",
        "¡"
      ],
      [
        "ľ",
        "é£İ"
      ],
      [
        "åį",
        "ļ"
      ],
      [
        "åī",
        "§"
      ],
      [
        "çĶ±",
        "äºİ"
      ],
      [
        "è¡",
        "¥"
      ],
      [
        "æĽ",
        "¾"
      ],
      [
        "æ¸",
        "¯"
      ],
      [
        "é¾",
        "Ļ"
      ],
      [
        "çĻ½çĻ",
        "ľé£İ"
      ],
      [
        "ä¼",
        "¤"
      ],
      [
        "çĸ",
        "¾"
      ],
      [
        "æ",
        "½"
      ],
      [
        "æĭ",
        "ħ"
      ],
      [
        "æ¶",
        "²"
      ],
      [
        "å¼Ģ",
        "å±ķ"
      ],
      [
        "é¢Ĩ",
        "åŁŁ"
      ],
      [
        "ä»£",
        "è¡¨"
      ],
      [
        "å¸",
        "®"
      ],
      [
        "çī",
        "Ī"
      ],
      [
        "ç½",
        "Ĺ"
      ],
      [
        "èģ",
        "ļ"
      ],
      [
        "ç»",
        "§"
      ],
      [
        "å¾",
        "ħ"
      ],
      [
        "ç",
        "¿"
      ],
      [
        "åı",
        "¦"
      ],
      [
        "çĶ",
        "³"
      ],
      [
        "ä¸Ģ",
        "æŃ¥"
      ],
      [
        "æ³¨",
        "æĦı"
      ],
      [
        ":",
        "âĢľ"
      ],
      [
        "äºĨ",
        "è§£"
      ],
      [
        "3",
        "0"
      ],
      [
        "å¿ħ",
        "é¡»"
      ],
      [
        "å»º",
        "çŃĳ"
      ],
      [
        "é¢Ĩ",
        "å¯¼"
      ],
      [
        "å·",
        "´"
      ],
      [
        "æ°´",
        "å¹³"
      ],
      [
        "ç«",
        "ŀ"
      ],
      [
        "ç»",
        "¼"
      ],
      [
        "å·",
        "®"
      ],
      [
        "åĿļ",
        "æĮģ"
      ],
      [
        "äº",
        "ĳ"
      ],
      [
        "åĪ",
        "»"
      ],
      [
        "ç§¯",
        "æŀģ"
      ],
      [
        "æ¯Ķ",
        "è¾ĥ"
      ],
      [
        "ä¸",
        "°"
      ],
      [
        "å·¥",
        "ä¸ļ"
      ],
      [
        "æĹ",
        "ħ"
      ],
      [
        "è¯",
        "¾"
      ],
      [
        "æ",
        "¦"
      ],
      [
        "åħ",
        "Ń"
      ],
      [
        "é",
        "¸"
      ],
      [
        "åĨ",
        "·"
      ],
      [
        "çĭ",
        "¬"
      ],
      [
        "-",
        "-"
      ],
      [
        "ä¸",
        "´"
      ],
      [
        "éķ",
        "ĩ"
      ],
      [
        "æŃ",
        "¦"
      ],
      [
        "æıĲ",
        "åįĩ"
      ],
      [
        "ç»ĵ",
        "æŀĦ"
      ],
      [
        "èīº",
        "æľ¯"
      ],
      [
        "é",
        "Ĩ"
      ],
      [
        "å¼",
        "Ĥ"
      ],
      [
        "20",
        "2"
      ],
      [
        "å¢ŀ",
        "åĬł"
      ],
      [
        "åľ°",
        "åĮº"
      ],
      [
        "ç¾İ",
        "åĽ½"
      ],
      [
        "ä½",
        "Ļ"
      ],
      [
        "é",
        "º"
      ],
      [
        "è§Ħ",
        "å®ļ"
      ],
      [
        "è´",
        "Ń"
      ],
      [
        "æĺ",
        "Ł"
      ],
      [
        "åĩ",
        "»"
      ],
      [
        "è",
        "Ĺ"
      ],
      [
        "ç´",
        "§"
      ],
      [
        "æī",
        "§"
      ],
      [
        "ç¬¬",
        "äºĮ"
      ],
      [
        "å®¢",
        "æĪ·"
      ],
      [
        "åį",
        "ł"
      ],
      [
        "é»",
        "ĳ"
      ],
      [
        "ç",
        "¯"
      ],
      [
        "å¸Į",
        "æľĽ"
      ],
      [
        "ä¹",
        "¡"
      ],
      [
        "æİ§",
        "åĪ¶"
      ],
      [
        "åĪĨ",
        "æŀĲ"
      ],
      [
        "ä¸į",
        "ä¼ļ"
      ],
      [
        "æĪĳ",
        "åĽ½"
      ],
      [
        "ä¼ł",
        "ç»Ł"
      ],
      [
        "åĬ",
        "³"
      ],
      [
        "èĳ",
        "Ĺ"
      ],
      [
        "æľīéĻĲ",
        "åħ¬åı¸"
      ],
      [
        "åį",
        "¡"
      ],
      [
        "æĹ¶",
        "ä»£"
      ],
      [
        "æ¯",
        "Ĵ"
      ],
      [
        "æĶ¿",
        "æ²»"
      ],
      [
        "è¿ĺ",
        "æĺ¯"
      ],
      [
        "å¢ŀ",
        "éķ¿"
      ],
      [
        "æĶ¹",
        "éĿ©"
      ],
      [
        "æĺ",
        "¥"
      ],
      [
        "ç»ı",
        "èĲ¥"
      ],
      [
        "æ¹",
        "ĸ"
      ],
      [
        "è´",
        "§"
      ],
      [
        "éĤ£",
        "ä¹Ī"
      ],
      [
        "Ġ",
        "ãĢģ"
      ],
      [
        "å¤",
        "®"
      ],
      [
        "èĪ",
        "ª"
      ],
      [
        "æ°",
        "§"
      ],
      [
        "å½¢",
        "æĪĲ"
      ],
      [
        "å®Į",
        "æĪĲ"
      ],
      [
        "æī",
        "¾"
      ],
      [
        "åį",
        "ĥ"
      ],
      [
        "åĽ",
        "º"
      ],
      [
        "ä¸Ĭ",
        "çļĦ"
      ],
      [
        "é¥",
        "®"
      ],
      [
        "æ¬",
        "¢"
      ],
      [
        "éĢ",
        "ģ"
      ],
      [
        "äº§",
        "çĶŁ"
      ],
      [
        "åº",
        "Ĺ"
      ],
      [
        "çİ°",
        "ä»£"
      ],
      [
        "èı",
        "ľ"
      ],
      [
        "çĤ",
        "İ"
      ],
      [
        "ä¿Ŀ",
        "æĬ¤"
      ],
      [
        "èĢ",
        "Ĳ"
      ],
      [
        "éĴ",
        "Ł"
      ],
      [
        "åĬł",
        "å¼º"
      ],
      [
        "åĵģ",
        "çīĮ"
      ],
      [
        "å¹´",
        "çļĦ"
      ],
      [
        "é¢",
        "ĳ"
      ],
      [
        "åħ³",
        "ç³»"
      ],
      [
        "æĢĿ",
        "æĥ³"
      ],
      [
        "æĸ°",
        "çļĦ"
      ],
      [
        "è®¤",
        "ä¸º"
      ],
      [
        "æŁ",
        "Ĳ"
      ],
      [
        "åĲĦ",
        "ç§į"
      ],
      [
        "æľī",
        "æķĪ"
      ],
      [
        "é¢",
        "Ŀ"
      ],
      [
        "æ¯",
        "į"
      ],
      [
        "æĶ¿",
        "çŃĸ"
      ],
      [
        "åıĳ",
        "çİ°"
      ],
      [
        "çº",
        "³"
      ],
      [
        "åħ",
        "°"
      ],
      [
        "çŁ",
        "Ń"
      ],
      [
        "èĢĮ",
        "ä¸Ķ"
      ],
      [
        "æĿ¥",
        "çļĦ"
      ],
      [
        "åŁº",
        "æľ¬"
      ],
      [
        "æĽ´",
        "åĬł"
      ],
      [
        "åı",
        "¥"
      ],
      [
        "åº",
        "§"
      ],
      [
        "ä¸ª",
        "äºº"
      ],
      [
        "äºĨ",
        "ä¸Ģ"
      ],
      [
        "æĮ",
        "¥"
      ],
      [
        "ç»¼",
        "åĲĪ"
      ],
      [
        "å½",
        "ķ"
      ],
      [
        "å¹³",
        "åı°"
      ],
      [
        "åĲ",
        "¦"
      ],
      [
        "åĽ½",
        "åĨħ"
      ],
      [
        "çĤ",
        "º"
      ],
      [
        "åĨħ",
        "å®¹"
      ],
      [
        "ç»",
        "¿"
      ],
      [
        "ç§",
        "»"
      ],
      [
        "å¯¼",
        "èĩ´"
      ],
      [
        "å¾",
        "ģ"
      ],
      [
        "éľĢ",
        "æ±Ĥ"
      ],
      [
        "éĩĩ",
        "çĶ¨"
      ],
      [
        "ãĢ",
        "Į"
      ],
      [
        "ç¼",
        "ĸ"
      ],
      [
        "å®¹",
        "æĺĵ"
      ],
      [
        "åº",
        "Ń"
      ],
      [
        "è´£",
        "ä»»"
      ],
      [
        "ãĢ",
        "į"
      ],
      [
        "æį",
        "Ł"
      ],
      [
        "å¼Ģ",
        "åıĳ"
      ],
      [
        "è§£",
        "åĨ³"
      ],
      [
        "æİ¨",
        "åĬ¨"
      ],
      [
        "åŃ¦",
        "éĻ¢"
      ],
      [
        "ä¹¦",
        "è®°"
      ],
      [
        "ä¼ļ",
        "è®®"
      ],
      [
        "çī¹",
        "åĪ«"
      ],
      [
        "éģ",
        "¿"
      ],
      [
        "æľ",
        "ĥ"
      ],
      [
        "æĦ",
        "¿"
      ],
      [
        "äº¿",
        "åħĥ"
      ],
      [
        "ç»",
        "Ŀ"
      ],
      [
        "åĨ",
        "Ļ"
      ],
      [
        "æ±",
        "ī"
      ],
      [
        "åĪ©",
        "çĶ¨"
      ],
      [
        "ç",
        "Ĵ"
      ],
      [
        "è",
        "²"
      ],
      [
        "èĻ",
        "½"
      ],
      [
        "çī",
        "Ľ"
      ],
      [
        "ä¸ļ",
        "åĬ¡"
      ],
      [
        "æĭ",
        "¥"
      ],
      [
        "çĸ¾",
        "çĹħ"
      ],
      [
        "ä»",
        "¤"
      ],
      [
        "åĵ",
        "ª"
      ],
      [
        "å²",
        "ģ"
      ],
      [
        "å¯",
        "Ł"
      ],
      [
        "è¯",
        "»"
      ],
      [
        "æĶ¯",
        "æĮģ"
      ],
      [
        ",",
        "âĢľ"
      ],
      [
        "ä¸į",
        "ä»ħ"
      ],
      [
        "åº",
        "ı"
      ],
      [
        "æ¬",
        "§"
      ],
      [
        "æĤ",
        "¨"
      ],
      [
        "ç»",
        "ľ"
      ],
      [
        "âĢĶ",
        "âĢĶ"
      ],
      [
        "åĨ",
        "ł"
      ],
      [
        "çĶ¨",
        "äºİ"
      ],
      [
        "ä½ĵ",
        "ç³»"
      ],
      [
        "1",
        "00"
      ],
      [
        "ä¸º",
        "äºĨ"
      ],
      [
        "æ³",
        "¢"
      ],
      [
        "çĶ",
        "²"
      ],
      [
        "çĮ",
        "®"
      ],
      [
        "æŃ",
        "»"
      ],
      [
        "éĢł",
        "æĪĲ"
      ],
      [
        "æ¢",
        "¦"
      ],
      [
        "é",
        "¼"
      ],
      [
        "çļĦ",
        "æĹ¶åĢĻ"
      ],
      [
        "èĥ",
        "ľ"
      ],
      [
        ")",
        ","
      ],
      [
        "ç§",
        "Ģ"
      ],
      [
        "çī¹",
        "èī²"
      ],
      [
        "æł",
        "ĳ"
      ],
      [
        "ä¸Ĭ",
        "æµ·"
      ],
      [
        "æį",
        "¢"
      ],
      [
        "æīĢ",
        "æľī"
      ],
      [
        "ç«",
        "ł"
      ],
      [
        "åĲ",
        "¬"
      ],
      [
        "å¦Ĥ",
        "ä½ķ"
      ],
      [
        "åį",
        "±"
      ],
      [
        "æĸ",
        "Ĺ"
      ],
      [
        "ä¿Ŀ",
        "æĮģ"
      ],
      [
        "èŃ",
        "¦"
      ],
      [
        "éĺ",
        "¿"
      ],
      [
        "è¿",
        "°"
      ],
      [
        "éģ",
        "ĩ"
      ],
      [
        "æ±½",
        "è½¦"
      ],
      [
        "åĪ¶",
        "éĢł"
      ],
      [
        "ç²",
        "ī"
      ],
      [
        "è¿Ļ",
        "ä¸Ģ"
      ],
      [
        "ä¹",
        "Ŀ"
      ],
      [
        "æ¤",
        "į"
      ],
      [
        "æľī",
        "åħ³"
      ],
      [
        "èĭ",
        "ı"
      ],
      [
        "å°",
        "Ħ"
      ],
      [
        "é£",
        "ŀ"
      ],
      [
        "æİ¨",
        "è¿Ľ"
      ],
      [
        "æ´",
        "Ĺ"
      ],
      [
        "ç»",
        "ĥ"
      ],
      [
        "å®ŀ",
        "æĸ½"
      ],
      [
        "çŁ¥",
        "è¯Ĩ"
      ],
      [
        "è¾¾",
        "åĪ°"
      ],
      [
        "éĢ",
        "Ĳ"
      ],
      [
        "é¡",
        "º"
      ],
      [
        "æĿ¡",
        "ä»¶"
      ],
      [
        "é",
        "¤"
      ],
      [
        "å",
        "ª"
      ],
      [
        "åŃĺ",
        "åľ¨"
      ],
      [
        "ä¹",
        "ħ"
      ],
      [
        "åı",
        "³"
      ],
      [
        "äºº",
        "æīį"
      ],
      [
        "ä»",
        "ª"
      ],
      [
        "éĩį",
        "çĤ¹"
      ],
      [
        "çĽ®",
        "æłĩ"
      ],
      [
        "ä¸Ń",
        "å¤®"
      ],
      [
        "çŁ¥",
        "éģĵ"
      ],
      [
        "æķĪ",
        "æŀľ"
      ],
      [
        "æ",
        "ĩ"
      ],
      [
        "åľ°",
        "æĸ¹"
      ],
      [
        "çĶ",
        "ļ"
      ],
      [
        "è¿Ľ",
        "ä¸ĢæŃ¥"
      ],
      [
        "èĮ",
        "¶"
      ],
      [
        "ç»",
        "į"
      ],
      [
        "å·",
        "¦"
      ],
      [
        "çĹ",
        "Ľ"
      ],
      [
        "èģĮ",
        "ä¸ļ"
      ],
      [
        "æĪ",
        "ı"
      ],
      [
        "ç«",
        "¯"
      ],
      [
        "èĩª",
        "çĦ¶"
      ],
      [
        "æĴ",
        "Ń"
      ],
      [
        "æıĲ",
        "åĩº"
      ],
      [
        "åħļ",
        "çļĦ"
      ],
      [
        "å®",
        "Ī"
      ],
      [
        "ä¹ĭ",
        "åĲİ"
      ],
      [
        "è´Ł",
        "è´£"
      ],
      [
        "æĭ",
        "Ľ"
      ],
      [
        "æ´",
        "²"
      ],
      [
        "1",
        "8"
      ],
      [
        "å°",
        "¼"
      ],
      [
        "ä»·",
        "æł¼"
      ],
      [
        "æ¶Ī",
        "è´¹"
      ],
      [
        "åĪ¶",
        "åº¦"
      ],
      [
        "é£Ł",
        "åĵģ"
      ],
      [
        "Â",
        "·"
      ],
      [
        "ä¼",
        "¼"
      ],
      [
        "é",
        "ĸ"
      ],
      [
        "æķĻ",
        "åŃ¦"
      ],
      [
        "æĵ",
        "į"
      ],
      [
        "åĩ",
        "Ģ"
      ],
      [
        "ç»ĵ",
        "åĲĪ"
      ],
      [
        "æĢ",
        "İ"
      ],
      [
        "%",
        ","
      ],
      [
        "5",
        "0"
      ],
      [
        "å",
        "³"
      ],
      [
        "åŁ¹",
        "åħ»"
      ],
      [
        "æĿ¥",
        "è¯´"
      ],
      [
        "è¿",
        "½"
      ],
      [
        "åºĶ",
        "è¯¥"
      ],
      [
        "æİ",
        "Ī"
      ],
      [
        "åŃ",
        "ķ"
      ],
      [
        "å¥",
        "Ĺ"
      ],
      [
        "å½",
        "©"
      ],
      [
        "ä¸Ģ",
        "èµ·"
      ],
      [
        "å®ŀ",
        "éĻħ"
      ],
      [
        "ä»",
        "į"
      ],
      [
        "å¤",
        "«"
      ],
      [
        "ä¸į",
        "è¦ģ"
      ],
      [
        "è¿ĺ",
        "æľī"
      ],
      [
        "åĬ",
        "ª"
      ],
      [
        "ä¸",
        "ĥ"
      ],
      [
        "å±",
        "Ĭ"
      ],
      [
        "æĻ",
        "Ĥ"
      ],
      [
        "è¿Ĳ",
        "åĬ¨"
      ],
      [
        "æĢ",
        "¥"
      ],
      [
        "åıĸ",
        "å¾Ĺ"
      ],
      [
        "äº¤",
        "éĢļ"
      ],
      [
        "è½",
        "®"
      ],
      [
        "æĽ´",
        "å¤ļ"
      ],
      [
        "éĴ",
        "Ī"
      ],
      [
        "ç½ĳ",
        "ç»ľ"
      ],
      [
        "èº«",
        "ä½ĵ"
      ],
      [
        "è¯",
        "Ĭ"
      ],
      [
        "èĤ",
        "¤"
      ],
      [
        "åİŁ",
        "åĽł"
      ],
      [
        "ä¹ĭ",
        "ä¸Ģ"
      ],
      [
        "ç´",
        "¢"
      ],
      [
        "æ¯Ķ",
        "èµĽ"
      ],
      [
        "å»º",
        "ç«ĭ"
      ],
      [
        "éĻ",
        "Ī"
      ],
      [
        "åħ",
        "¸"
      ],
      [
        "æĮģ",
        "ç»Ń"
      ],
      [
        "åĽ",
        "°"
      ],
      [
        "çĪ",
        "¶"
      ],
      [
        "å¸®",
        "åĬ©"
      ],
      [
        "åĳ",
        "¢"
      ],
      [
        "æİ",
        "¢"
      ],
      [
        "çĻ",
        "»"
      ],
      [
        "è¿Ļ",
        "æĺ¯"
      ],
      [
        "æķ",
        "£"
      ],
      [
        "æİ",
        "ª"
      ],
      [
        "éĢ",
        "Ģ"
      ],
      [
        "è·",
        "µ"
      ],
      [
        "æ°ĳ",
        "æĹı"
      ],
      [
        "æĭ¥",
        "æľī"
      ],
      [
        "éĢ",
        "ı"
      ],
      [
        "ä¼ĺ",
        "åĬ¿"
      ],
      [
        "ä»·",
        "åĢ¼"
      ],
      [
        "èĥ",
        "¶"
      ],
      [
        "ä¹",
        "°"
      ],
      [
        "äº",
        "Ī"
      ],
      [
        "èį",
        "ī"
      ],
      [
        "å¥",
        "ĭ"
      ],
      [
        "ä¿ĥ",
        "è¿Ľ"
      ],
      [
        "1",
        "6"
      ],
      [
        "å¡",
        "ĳ"
      ],
      [
        "é",
        "Ń"
      ],
      [
        "çĽ´",
        "æİ¥"
      ],
      [
        "ä»ĭ",
        "ç»į"
      ],
      [
        "è¿Ľ",
        "åħ¥"
      ],
      [
        "åĨ",
        "²"
      ],
      [
        "éļı",
        "çĿĢ"
      ],
      [
        "è",
        "Ľ"
      ],
      [
        "éĺ",
        "¶"
      ],
      [
        "èĤ",
        "ī"
      ],
      [
        "åģ",
        "ľ"
      ],
      [
        "ç",
        "µ"
      ],
      [
        "éĿ",
        "ł"
      ],
      [
        "éĶĢ",
        "åĶ®"
      ],
      [
        "çĶŁ",
        "æĢģ"
      ],
      [
        "è",
        "ĸ"
      ],
      [
        "äºĶ",
        "è¡Į"
      ],
      [
        "ä¿Ŀ",
        "éļľ"
      ],
      [
        "äºº",
        "ä»¬"
      ],
      [
        "è",
        "ĵ"
      ],
      [
        "éĴ",
        "±"
      ],
      [
        "éĽ",
        "¨"
      ],
      [
        "è§Ħ",
        "åĪĴ"
      ],
      [
        "æĪĲ",
        "åĬŁ"
      ],
      [
        "è·",
        "Ł"
      ],
      [
        "ç»",
        "©"
      ],
      [
        "åĪĨ",
        "éĴŁ"
      ],
      [
        "åº",
        "Ĭ"
      ],
      [
        "ä»Ĭ",
        "å¹´"
      ],
      [
        "æĢ",
        "Ģ"
      ],
      [
        "æĸ½",
        "å·¥"
      ],
      [
        "æħ",
        "¢"
      ],
      [
        "å¥",
        "ĩ"
      ],
      [
        "åıĤ",
        "åĬł"
      ],
      [
        "è½",
        "½"
      ],
      [
        "èį",
        "£"
      ],
      [
        "åĬª",
        "åĬĽ"
      ],
      [
        "å¸",
        "Ń"
      ],
      [
        "ä»»",
        "ä½ķ"
      ],
      [
        "çĶļ",
        "èĩ³"
      ],
      [
        "åĮ»",
        "çĸĹ"
      ],
      [
        "å®",
        "ģ"
      ],
      [
        "çĶŁ",
        "çī©"
      ],
      [
        "èĻ½",
        "çĦ¶"
      ],
      [
        "æĪĺ",
        "çķ¥"
      ],
      [
        "è´",
        "µ"
      ],
      [
        "èĦ",
        "±"
      ],
      [
        "é",
        "½"
      ],
      [
        "æĪĲ",
        "æľ¬"
      ],
      [
        "å®",
        "«"
      ],
      [
        "æī",
        "©"
      ],
      [
        "èĲ½",
        "å®ŀ"
      ],
      [
        "ä»",
        "ĺ"
      ],
      [
        "æĻ",
        "ļ"
      ],
      [
        "åĬł",
        "å·¥"
      ],
      [
        "è®¡",
        "åĪĴ"
      ],
      [
        "ä¸Ģ",
        "çĽ´"
      ],
      [
        "å¥",
        "¥"
      ],
      [
        "ä½ĵ",
        "èĤ²"
      ],
      [
        "åģ",
        "ĩ"
      ],
      [
        "çĨ",
        "Ł"
      ],
      [
        "è¿ĩç¨ĭ",
        "ä¸Ń"
      ],
      [
        "æ",
        "©"
      ],
      [
        "ç»§",
        "ç»Ń"
      ],
      [
        "æ³",
        "Ľ"
      ],
      [
        "çİ",
        "»"
      ],
      [
        "ç½",
        "ª"
      ],
      [
        "åª",
        "Ĵ"
      ],
      [
        "å§Ķ",
        "åĳĺ"
      ],
      [
        "é¦",
        "Ĩ"
      ],
      [
        "èĭ",
        "¦"
      ],
      [
        "åħ±",
        "åĲĮ"
      ],
      [
        "ç¥",
        "¨"
      ],
      [
        "å¾Ĺ",
        "åĪ°"
      ],
      [
        "ä¸¥",
        "éĩį"
      ],
      [
        "äºĭ",
        "ä¸ļ"
      ],
      [
        "çģ",
        "µ"
      ],
      [
        "è¡Į",
        "ä¸º"
      ],
      [
        "åĢ",
        "Ł"
      ],
      [
        "åħ¨",
        "çĲĥ"
      ],
      [
        "çļĦ",
        "åıĳå±ķ"
      ],
      [
        "ç¨³",
        "å®ļ"
      ],
      [
        "æľ",
        "ĭ"
      ],
      [
        "ä¸°",
        "å¯Į"
      ],
      [
        "æ¯",
        "Ľ"
      ],
      [
        "åħħ",
        "åĪĨ"
      ],
      [
        "èı",
        "Į"
      ],
      [
        "åıĳ",
        "æĮ¥"
      ],
      [
        "å»",
        "¶"
      ],
      [
        "ä½",
        "³"
      ],
      [
        "è¯",
        "ī"
      ],
      [
        "æĿ",
        "¾"
      ],
      [
        "åŁ¹",
        "è®Ń"
      ],
      [
        "æĶ",
        "»"
      ],
      [
        "æĢ§",
        "èĥ½"
      ],
      [
        "æī",
        "ĺ"
      ],
      [
        "éĶ",
        "®"
      ],
      [
        "éĶ",
        "Ļ"
      ],
      [
        "æŃ",
        "Į"
      ],
      [
        "æĻº",
        "èĥ½"
      ],
      [
        "åİ",
        "ļ"
      ],
      [
        "ä¹ĭ",
        "éĹ´"
      ],
      [
        "èĦ",
        "ĳ"
      ],
      [
        "å®",
        "Ĺ"
      ],
      [
        "åĪ",
        "ĺ"
      ],
      [
        "æķĻ",
        "å¸Ī"
      ],
      [
        "å",
        "ĺ"
      ],
      [
        "æ¢",
        "°"
      ],
      [
        "å¨",
        "ģ"
      ],
      [
        "é",
        "ł"
      ],
      [
        "åıª",
        "æľī"
      ],
      [
        "è¶ħ",
        "è¿ĩ"
      ],
      [
        "åı",
        "¶"
      ],
      [
        "äº",
        "«"
      ],
      [
        "æĮī",
        "çħ§"
      ],
      [
        "ç¦",
        "ģ"
      ],
      [
        "ä¹",
        "İ"
      ],
      [
        "çļĦ",
        "éĩįè¦ģ"
      ],
      [
        "ä¸ĵ",
        "å®¶"
      ],
      [
        "ç",
        "¶"
      ],
      [
        "åº",
        "Ĩ"
      ],
      [
        "è§Ħ",
        "æ¨¡"
      ],
      [
        "èĥ",
        "Į"
      ],
      [
        "åıĬ",
        "æĹ¶"
      ],
      [
        "åĲ",
        "¯"
      ],
      [
        "å¦",
        "ĩ"
      ],
      [
        "1",
        "4"
      ],
      [
        "æīį",
        "èĥ½"
      ],
      [
        "æ",
        "¾"
      ],
      [
        "æ¡",
        "¥"
      ],
      [
        "æ£Ģ",
        "æŁ¥"
      ],
      [
        "çļĦ",
        "å¤§"
      ],
      [
        "è¯",
        "ļ"
      ],
      [
        "éĢ",
        "Ļ"
      ],
      [
        "è½",
        "¯"
      ],
      [
        "è´",
        "¯"
      ],
      [
        "å®¶",
        "åºŃ"
      ],
      [
        "çĴ",
        "ĥ"
      ],
      [
        "æ¯",
        "ķ"
      ],
      [
        "åĿ",
        "Ĺ"
      ],
      [
        "ç",
        "ĺ"
      ],
      [
        "éĩĳ",
        "èŀį"
      ],
      [
        "èĥ½",
        "æºĲ"
      ],
      [
        "ä¸¤",
        "ä¸ª"
      ],
      [
        "çĶ¨",
        "æĪ·"
      ],
      [
        "æĬ",
        "ĵ"
      ],
      [
        "ç³»",
        "åĪĹ"
      ],
      [
        "æľĢ",
        "åĲİ"
      ],
      [
        "çĽ",
        "ĸ"
      ],
      [
        "ä¼",
        "Ł"
      ],
      [
        "æ°",
        "¸"
      ],
      [
        "æĬ¥",
        "åĳĬ"
      ],
      [
        "é²",
        "ľ"
      ],
      [
        "1",
        "3"
      ],
      [
        "éĿ",
        "Ļ"
      ],
      [
        "åĢ",
        "ĭ"
      ],
      [
        "è®¸",
        "å¤ļ"
      ],
      [
        "åıĹ",
        "åĪ°"
      ],
      [
        "èĨ",
        "ľ"
      ],
      [
        "èĻ",
        "ĳ"
      ],
      [
        "çĥ",
        "Ī"
      ],
      [
        "æľ",
        "Ŀ"
      ],
      [
        "ç«",
        "¥"
      ],
      [
        "æľĭ",
        "åıĭ"
      ],
      [
        "æĿ",
        "Ĥ"
      ],
      [
        "åıĺ",
        "åĮĸ"
      ],
      [
        "çĶµ",
        "å½±"
      ],
      [
        "æł¸",
        "å¿ĥ"
      ],
      [
        "ä»ĸ",
        "çļĦ"
      ],
      [
        "è°",
        "¢"
      ],
      [
        "çĬ",
        "¯"
      ],
      [
        "åıĤ",
        "ä¸İ"
      ],
      [
        "æ´",
        "ģ"
      ],
      [
        "æı",
        "¡"
      ],
      [
        "è",
        "³"
      ],
      [
        "æĢ§",
        "çļĦ"
      ],
      [
        "çĥ",
        "Ł"
      ],
      [
        "éĻ",
        "Ħ"
      ],
      [
        "åĽł",
        "ç´ł"
      ],
      [
        "å®Į",
[...]
